[PAD]
[unused1]
[unused2]
[unused3]
[unused4]
[unused5]
[unused6]
[unused7]
[unused8]
[unused9]
[unused10]
[unused11]
[unused12]
[unused13]
[unused14]
[unused15]
[unused16]
[unused17]
[unused18]
[unused19]
[unused20]
[unused21]
[unused22]
[unused23]
[unused24]
[unused25]
[unused26]
[unused27]
[unused28]
[unused29]
[unused30]
[unused31]
[unused32]
[unused33]
[unused34]
[unused35]
[unused36]
[unused37]
[unused38]
[unused39]
[unused40]
[unused41]
[unused42]
[unused43]
[unused44]
[unused45]
[unused46]
[unused47]
[unused48]
[unused49]
[unused50]
[unused51]
[unused52]
[unused53]
[unused54]
[unused55]
[unused56]
[unused57]
[unused58]
[unused59]
[unused60]
[unused61]
[unused62]
[unused63]
[unused64]
[unused65]
[unused66]
[unused67]
[unused68]
[unused69]
[unused70]
[unused71]
[unused72]
[unused73]
[unused74]
[unused75]
[unused76]
[unused77]
[unused78]
[unused79]
[unused80]
[unused81]
[unused82]
[unused83]
[unused84]
[unused85]
[unused86]
[unused87]
[unused88]
[unused89]
[unused90]
[unused91]
[unused92]
[unused93]
[unused94]
[unused95]
[unused96]
[unused97]
[unused98]
[unused99]
[UNK]
[CLS]
[SEP]
[MASK]
<S>
<T>
!
"
#
$
%
&
'
(
)
*
+
,
-
.
/
d
e
a
##ra
de
p
c
##os
##nt
##re
:
;
<
=
>
?
@
##as
s
##er
##or
##ad
##es
co
##is
o
##in
##ma
n
##ão
##ia
##qu
f
##ta
##me
##ic
##ro
##nd
##ar
t
##id
##al
qu
[
\
]
^
_
u
com
do
##ri
em
m
##nte
se
A
##el
que
da
##on
##ção
##to
re
##te
##ara
C
es
v
##an
##le
E
##ti
##en
{
|
}
~
¡
S
##ado
no
##ou
§
1
##"
##res
«
##ul
##em
##ol
P
M
##ndo
##il
¶
·
##ci
l
»
para
um
ma
¿
##gu
##tu
fo
##am
na
uma
O
##ica
su
##nto
b
##se
g
in
##nc
por
B
##(
##do
##ei
2
##mente
##io
N
##us
D
##ada
##ha
é
i
##ns
##va
R
pro
os
as
##ade
foi
F
##po
##ent
##la
T
##ho
##pe
##ões
como
##de
des
j
19
L
##ras
G
pel
##iv
##iz
##mb
##mo
##it
##da
##ido
##ig
##ram
##ce
I
ou
##idade
##so
ex
##ist
##he
20
dos
J
##no
##ve
po
##co
##ca
ap
##tr
##ir
##ados
##un
##mento
me
##ém
al
##im
##ções
ta
con
ent
##ico
ao
##pa
##ria
##nde
##na
mais
##lo
sua
##ida
ca
H
so
par
ser
est
Em
cont
per
tra
##go
##ncia
##ação
##rio
##ita
for
Es
não
seu
##ando
h
##mp
##cia
##at
à
V
##",
##ça
##if
##ntes
U
an
at
mu
pr
##ira
##ur
das
##ter
ele
pri
ter
##era
pa
##ito
to
##sa
tem
##ment
##vo
##du
cons
##ru
##tos
##ec
##ista
Co
##cion
##ina
ar
##um
mo
##ver
##ura
##tic
prime
fa
##),
##iro
res
##ência
201
##adas
##mbém
##ente
##nda
segu
##tura
também
comp
No
##nter
##lu
pela
##ez
##ior
##vel
gra
ac
esta
##vi
entre
##ga
200
pelo
##ers
sob
##ição
dis
##tor
pos
##ed
##ís
en
##ix
di
##".
##tra
te
or
##og
esc
##ais
##dos
á
##ros
##ass
##ing
le
W
mas
fil
##oc
##ulo
são
mes
##que
##iu
##ib
##eiro
##pos
##ial
K
##esso
ob
##man
##ês
pre
##ári
##ag
##ós
##tas
##bl
ab
##tiv
##idos
ba
Al
##tal
##tica
##ens
##).
anos
Re
##be
##ion
##min
##mas
##tado
##ário
##ess
##aram
##pres
##bo
##ch
reg
era
Mar
##tru
sobre
##ere
##ador
##ios
ass
Na
cas
car
foram
##les
##inha
##inal
As
3
##for
##ades
##ne
##anto
tor
##ino
##vol
##orte
Pa
##ço
##gra
##cio
##ja
imp
##per
au
mar
nas
Se
##éc
seus
Os
##tros
##aliz
Un
##je
nos
##nta
De
##bal
18
pres
##iste
##der
##ham
forma
até
cor
##cial
##bro
##tro
##ons
##00
##tes
##eira
##indo
inter
##ip
##icos
##cional
##ias
inc
##anç
##ula
Por
##tiva
enc
##titu
rec
##-
fu
##pois
##pera
##urante
vez
ro
##tar
##mentos
##mer
##ba
onde
##ele
##lia
##icas
of
##ran
ho
##idades
##ér
##das
mil
##ite
##ase
##ivers
tempo
##ião
contra
lu
produ
ins
ad
##ral
##ber
##ús
conc
ha
##erra
prin
cam
##ários
Bras
##iss
algu
qual
##enas
Sa
##ont
##via
Ma
199
ano
du
##inda
quando
##ên
inte
Ca
sa
##til
ú
##anh
##ória
##ile
##dio
maior
oc
##hec
##entes
##ge
dire
##ín
##almente
dia
trabal
ra
##rá
##ôn
##idas
##0,
cidade
primeiro
mesmo
##tou
nome
##és
##por
##orre
faz
sendo
pol
come
՚
՛
՜
՝
՞
poss
trans
parte
##rada
##ranc
Ro
cl
suas
##istas
##este
4
##dia
##aria
primeira
dois
##hos
##rem
##ceu
princi
##est
##éri
rela
##ano
Su
##vam
dec
##bu
sub
Ch
##tivo
está
##ima
depois
##nos
##gar
##om
##ân
##gem
pode
։
֊
##over
São
##ular
aos
##tico
##ismo
##ola
##ona
ju
hist
־
##tados
##itos
׃
pass
Jo
##fer
durante
us
##ard
Ar
esp
##óp
5
ind
espe
##et
outros
##ração
cer
grande
ela
##ju
##eral
##son
ainda
torn
rece
##ela
##rou
##ás
׳
״
،
؍
##tó
؛
؟
##Qu
##isão
##ças
dif
Com
ag
##ogo
desen
che
pe
X
gru
##dem
já
Brasil
tr
Gu
final
##ór
##úbl
equ
encont
##tir
##fe
vol
Ap
Fo
##cias
muito
cri
Ele
##eito
##ine
após
##uro
ver
##mos
##ie
##ana
##enta
##idera
partic
##ck
##embro
##adores
pesso
apres
198
Car
país
Qu
gover
##uma
##val
٪
٫
٬
٭
pop
lanç
loc
conhec
jog
apenas
##elo
can
##are
##ord
##rado
##ício
##pre
##esa
atu
##cu
##íp
##ições
##ng
sem
##ível
##plo
۔
##inu
##tras
##ala
fam
##has
Ba
##rav
mús
##gre
is
então
cham
##ntos
inf
##za
cap
cria
##icial
ant
##vido
realiz
##atro
este
##gan
##pu
##pl
três
##con
gu
ál
inclu
Mu
af
##segu
ne
ve
##icação
orig
##êm
un
##ide
pu
##tá
##lti
cr
Par
##unic
##cesso
polí
##érie
6
197
##orta
nov
##ril
constru
##aneiro
Mo
Lu
##ton
si
##ticas
##rar
div
ed
##gua
##forma
princip
##rig
##ific
sido
##veis
##ização
Le
##ena
estu
##hor
conf
##2,
##bum
##cul
desenvol
।
॥
##idente
##iam
duas
ir
poder
##8,
form
##7,
começ
##itar
॰
##ves
##car
##5,
nú
##6,
##ant
grupo
nova
##quanto
##cos
##cer
todos
##iga
##1,
##dor
##4,
mel
##dic
##cimento
##rea
##vimento
pelos
liv
##mar
Y
fre
Para
util
álbum
vo
##árias
ti
##th
##las
siste
fun
sol
196
##3,
Cam
últi
##mbro
def
##rito
7
tinha
##ribu
##bil
série
fic
prof
##agem
So
##inas
##ven
fal
É
difere
##ít
##ign
Ja
##inho
segundo
considera
15
filme
##ária
às
##9,
dist
vis
bem
##quer
Z
Rio
próp
##esta
bras
estava
Foi
##ital
desta
8
assim
##inte
partir
##ília
apresent
havia
mé
teve
Con
##itas
##olog
dez
outras
##ndes
##ências
im
atrav
Paulo
cu
cul
séc
base
##ipa
##igo
17
lon
##osto
Ale
##eiros
publ
##ris
possu
estre
##são
##ável
##anha
am
##lan
home
brasile
##mes
númer
##iros
maio
empres
eles
man
pas
repres
desde
##ipe
utiliz
##tação
vida
cent
La
Pro
tro
pou
antes
##dade
##0.
cada
região
##ero
história
##óg
##orn
la
eram
##ive
##ble
##ual
alguns
##odo
##ério
divers
públ
Po
##ici
##gia
Ex
épo
##nça
##tivos
pessoas
##tores
munic
consegu
casa
##grama
##ticos
##pon
cond
banda
##des
“
##“
deix
através
Gra
9
sete
música
cheg
##tamente
##,
Bo
mul
##di
época
##ços
##cre
##int
jogo
##tion
##ança
Ne
Estados
##her
amb
comple
perí
enquanto
##oria
sim
fund
pes
##icia
##isa
podem
mundo
apro
##cas
##ntro
bo
16
##bel
fe
Lo
##ice
organ
Cons
##los
novo
governo
##tugu
##ulação
##lig
##fa
além
person
importa
aco
Cas
Ra
##vent
part
pra
proje
vezes
estado
apo
##ância
século
sistema
##ze
apare
##ordo
##igu
##tre
##gal
194
número
195
fez
Ant
10
exem
Unidos
##cado
##br
##fre
especial
##edade
val
ale
só
tornou
tít
início
col
Te
##rança
vários
##imo
##oso
##mã
ven
##elho
recebe
##nder
resul
##enh
##issão
Jos
##vid
trabalho
ch
##ient
tendo
Am
##ila
super
##ill
##-1
Bar
##lio
To
##ire
continu
subs
local
##ress
Após
esti
12
mud
##ípio
##tin
vers
lugar
caus
##esse
geral
##tório
##esar
mos
período
programa
quatro
isso
tar
##ulho
##greja
mod
##ologia
Um
##unho
déc
##para
Univers
##ifica
pla
der
produz
##reira
cur
ún
##tubro
##hões
##mel
193
escol
##tivas
##ov
##fica
pequ
conta
##ik
##jo
##ído
família
##gos
Ent
##ional
Da
Is
colo
##bora
##rit
Á
med
##und
##éci
lev
##pri
perm
##ident
Des
Segu
há
In
##bol
principal
Ou
servi
##rias
ref
ru
ata
Me
temporada
##iva
##duz
##ciais
Ho
##fia
##.
entanto
##pec
área
art
##par
il
diz
comun
Fa
aca
r
public
##osa
fim
##reiro
lo
lado
outro
##nas
##ell
##lube
##meric
##ecess
cin
II
##udo
começou
##veu
##cou
cara
##ts
tur
contro
Ass
volta
##cri
##ich
num
##osta
todo
acordo
ocorre
passou
autor
ali
##erv
##ução
devido
tarde
##ques
##eita
estão
encontra
##tada
–
##–
##bre
##au
##tante
cerca
##iano
morte
##amb
##ída
The
sal
##ixo
Fer
##ón
várias
necess
k
Or
##The
##ndia
capa
sur
##iras
##and
##ry
ep
##minist
melhor
##rios
##sos
norte
obje
##cess
via
##ndial
muitos
exemplo
filho
##ins
Franc
conhecido
prov
Sul
meio
Col
passa
14
##mou
resp
##iram
##ivo
Uma
desco
11
fazer
##lus
##lica
total
Fe
min
##pel
##tural
aju
##ática
nu
##ixa
Tra
va
segunda
ped
algumas
##ense
econ
João
formula
Janeiro
portugu
seguinte
##mão
##óx
##eno
título
men
Euro
##onato
rev
##cter
seria
produção
el
Man
##rin
་
།
aqu
Ta
##ten
Estado
equipe
Maria
tri
##ológ
trabalh
##écn
escri
todas
ing
##érci
situ
plan
década
grandes
13
sign
Durante
##gens
terc
grav
conqu
##up
##ang
Pe
pois
afir
##."
José
tele
##peonato
Inter
##sas
tre
outubro
dezembro
lançado
lib
##íci
##ora
pare
sucesso
conte
participa
população
##ulos
##000
Entre
##terior
192
##tebol
menos
milhões
##dios
##ale
numa
Esta
##ál
localiz
##vereiro
##gue
oficial
##panha
##usic
##teg
##tria
janeiro
setembro
município
franc
seja
class
##[
##ke
derro
##tando
Cor
influ
##vação
##eio
##gas
၊
။
၌
၍
၎
၏
dias
chamado
##mpre
sul
pai
qualquer
março
cole
Ga
##riz
defin
An
anter
opera
##tugal
##té
Nacional
##2.
Universidade
espéci
##bita
##isó
Nova
bas
##pais
mesma
##ornal
##cação
junho
##ações
191
##nacional
perman
##tanto
dispu
##inh
agosto
##anc
Como
Depois
##xo
##igos
original
Be
##ime
##bra
proble
coma
##tivamente
Ju
abril
muitas
mon
novembro
julho
versão
##ari
the
existe
mor
Portugal
##él
Guerra
Ad
##cionais
Além
caracter
##ise
espa
escre
maioria
##ército
sent
##imento
arqu
longo
presidente
##ença
acab
Quando
ganh
Mas
##eses
quais
compe
principais
##turas
Ol
caso
##ric
##vis
##gado
Fil
##od
guerra
disso
Ela
mã
crí
##")
cres
##rb
ví
##orma
##red
##ía
obs
##vas
##tido
processo
##inos
ativ
pelas
gen
recebeu
##ff
próx
Este
##mbros
Ao
sempre
cinco
##íveis
##iões
##isco
recon
cha
ef
lig
incluindo
##mica
pouco
##nando
##cil
particip
##gio
uso
canção
##unci
##pro
Cent
##ndas
obra
mer
##pas
##5.
##nce
conju
relação
Ha
técn
Do
gol
quar
fer
toda
posição
##iana
livro
‖
‚
„
‟
†
‡
•
․
‥
‧
‰
′
″
‹
›
※
‿
Per
##érica
carreira
lim
ten
Joh
vit
substitu
ens
terri
##anos
⁾
real
episó
rei
diferentes
desenvolvimento
z
##bilidade
##rão
Grande
integra
₍
₎
##how
Du
má
ficou
relig
##all
deter
##1.
nacional
##ruz
clube
países
possui
envol
projeto
constitu
##icamente
##mana
represent
##fo
termin
##oss
##8.
##4.
público
##eitos
hoje
##ibil
promo
cir
##6.
lança
fora
##ud
papel
empresa
int
El
##ndida
construção
porém
aconte
##3.
And
##ilo
alc
retor
##ecu
fevereiro
##agens
##ph
tal
##ian
##mina
compos
mostra
corre
quase
refer
membros
jov
##endo
##istência
##II
Go
〈
〉
corpo
##tel
Ped
##7.
tec
Nos
política
Santa
dentro
##peri
gera
Sua
##deral
lí
##amento
auto
comer
importante
estru
ima
prec
pad
embora
têm
capital
organiz
##one
outra
##cido
obras
Can
##inado
lin
frequ
##our
##pla
primeiros
##iver
##tamento
##sia
aber
administ
##iores
##ública
##asse
informa
pal
⟨
⟩
##ick
、
。
〃
inde
##ron
〈
〉
《
》
「
」
『
』
【
】
quad
〔
〕
〖
〗
〜
〝
tipo
leva
significa
25
dem
##eiras
conhe
brasileiro
Min
Igreja
##íf
interpre
Ber
##ex
ide
##ificação
rá
Sal
essa
##ntas
bar
##9.
fra
morre
##cel
Cl
##visão
##ndente
##ritân
##ses
##uman
30
tent
##quia
Ver
av
##ub
##tiu
ja
##pol
##nças
##cais
cal
próprio
pesqu
Sen
##ka
desa
prog
Ed
principalmente
##wa
jornal
ga
último
Seu
Tamb
jogos
and
##ong
En
##eles
##áveis
esse
habita
fica
americ
##eta
tanto
##reas
##ut
##gação
França
vi
quem
##xim
social
Ac
deve
junto
Ins
ri
Sh
Também
##ind
##com
##ônia
asso
água
Ge
novamente
##eria
##iel
disse
centro
luta
linha
experi
##land
deu
lín
propri
##emin
regist
Brasile
origem
ponto
—
##—
##berto
mater
##cho
Carlos
revel
##adora
popular
##ene
Cal
##ly
dirig
##..
ating
Imp
anima
Esc
##nca
##vio
##rais
Pol
##iri
##ulares
##cha
institu
lhe
##xa
pontos
##vesti
##pend
##che
##bri
anunci
logo
inicia
##inais
proc
##iar
povo
##tens
##01
chamada
Fre
Fu
##ped
##eric
Sil
##ionais
##ustr
edição
##essa
##pen
##lic
apresenta
##adamente
##tual
Apesar
・
cant
diversas
##ndeu
estavam
##igh
eleito
TV
##ys
##pública
expl
##pira
chegou
personagem
sus
conhecida
##ciedade
Norte
diversos
##ônio
Mundial
relacion
Ab
Pal
Europa
##ética
América
anterior
##tif
##tem
##posição
fato
##vida
amp
##ingle
##upa
##inham
determin
ident
exib
Roma
pala
melho
comb
meses
porque
funcion
movimento
Au
##ística
##gues
##órias
representa
decid
##xto
##mentar
forte
##talha
Mé
##reg
neg
Reg
irmã
deno
##olo
moder
op
fin
##vento
tenta
##itor
seis
Bra
sí
í
fro
Pr
Wil
##cendo
estad
##tan
##dução
km
##iente
##eb
transm
conjunto
Pri
Copa
pint
##vem
empre
feito
indiv
##tt
Reino
For
cultura
deste
##cle
##teriormente
idade
##nador
fase
espec
##adeira
Comp
##cto
##ãos
##culo
estilo
##gora
##âne
##ples
momento
escola
desem
##tiz
##gon
rio
##wn
vel
##form
##ulas
##posta
##ód
##ácio
Segundo
mãe
##urso
##áss
possível
futebol
grupos
maiores
criação
##boa
Pedro
inicial
expres
##radas
Mil
##heres
profiss
palav
##inema
##entemente
##art
##estão
homens
ofere
Algu
##ínio
cidades
##ardo
pré
##ki
Ru
resta
##cam
lançamento
##ley
John
bus
único
atual
norma
24
Campeonato
nenh
campe
alcanç
##ráf
lei
canto
perde
campo
##gi
execu
##dores
##vor
quanto
21
ado
cos
disco
investi
Lis
##zo
competi
Nas
reun
militar
valor
XV
##erva
##nia
##mara
Ing
filha
Porto
##orr
nível
##zes
assum
##ner
##bele
afirma
áreas
modo
Dire
##ler
respons
simples
Bu
##rados
##ya
Ser
conseguiu
decl
própria
distribu
##melha
##isso
filhos
music
##ntamente
inici
Super
0
event
Ang
##porte
##uais
##lores
##izado
considerado
##ivil
Ag
##elas
##bar
##oro
prova
Pres
categ
Assim
instru
At
her
er
causa
cient
##atos
##ísticas
pl
##quele
##ger
Rec
República
##orge
##manha
##americ
He
Paul
##mais
##ier
100
##tualmente
22
et
última
##vil
britân
sele
Francisco
geralmente
vari
##êmio
##den
apoio
##essor
##menta
dom
força
ener
##ork
voc
pref
##ft
jogador
Hen
docu
fos
destru
perte
espaço
nunca
tinham
surg
episódio
direito
##bur
##vos
televisão
##ôm
##íg
ev
frente
forças
pen
190
show
conse
##velmente
##cada
arte
bair
mant
##ultura
##dar
estrutura
ol
metros
dados
formação
edu
problemas
companh
exército
homem
histór
##volução
##lâ
inv
terceiro
função
##dou
marca
##rações
##intes
Lisboa
##mental
território
##ntemente
##ren
##rist
##lub
roma
Emb
Ste
human
##ipal
##cidade
varia
##reto
Alemanha
##pare
##]]
##tur
##bate
revista
religios
##har
estabele
novos
Val
vitória
189
tradic
permane
id
princ
apesar
##tenção
Cap
##ntar
lidera
##omia
##iza
##lês
son
##gn
divid
##úde
candida
resultado
##seu
defe
##culos
denomin
Institu
mulheres
##jas
dele
##icion
liber
##ese
filmes
cargo
acabou
exp
##'
##maz
teria
##iado
ganhou
##""
irmão
termo
vir
importantes
única
terra
diretor
cola
##ced
usado
Pra
figu
##pida
##ward
##ciação
participação
Cont
##ane
Sou
víde
##isas
sede
##bert
gre
controle
conver
Tem
Lei
membro
time
musical
23
##lmente
comum
brasileira
ge
Mais
##tí
##ater
tão
##su
##étr
média
##ok
modelo
arquite
espera
##hão
quant
##nsa
##vado
ilha
##fr
Federal
somente
##izada
separa
##ort
apre
novas
agora
língua
##rando
Deus
##ity
enfre
vai
Não
euro
crist
ital
Edu
acred
locais
habitantes
##iter
rede
##inhos
##ames
New
##mada
fís
antiga
##-2
contribu
##ture
prote
conquista
##perador
##cra
ajuda
branc
igreja
##uel
viv
espanh
tais
méd
##ceram
##âmara
seguintes
serviço
##tri
##terra
##vendo
##ícios
##vada
reti
Império
acomp
estú
dispon
envi
sofre
fosse
seguida
##resso
ambos
28
##tão
estudos
direção
edif
##hou
##tam
antigo
ordem
lançou
##posa
##belec
##ré
mulher
del
energia
##ún
##ntou
##ificado
Dan
interes
##men
##sen
Bro
Mel
##ânia
Med
disc
##ney
##pão
##inar
transfer
##ramas
espécies
Ter
levou
##iveram
objetivo
Ka
XI
26
##fici
##guas
fazendo
abs
exc
pais
##itado
personagens
internacional
dever
Ben
presença
##mado
##cida
campanha
##cente
##xe
sex
equip
leg
serviços
intro
jovem
Itá
inglês
gên
tenha
##dap
##lhe
receb
Eles
univers
##una
cinema
##inc
igu
português
prop
##íl
##estiv
União
Har
exer
dese
he
atribu
27
huma
político
##ursos
ate
escrito
poderia
recu
##ãs
188
Terra
##tadores
central
tecn
escreveu
Embora
##dição
alemã
##cios
interior
vice
organização
w
Desde
##iciais
ó
##ixas
sociedade
Paris
resol
resid
natural
##eias
mont
nasceu
Itália
lar
aband
##volu
##gh
##into
##tadas
Alex
explo
criado
##ônica
##enos
gara
Minist
alta
##ouve
descre
##ará
##can
atividades
Mad
serem
##gent
##ibilidade
##erais
evento
Her
##ps
milita
estran
tudo
##cando
especialmente
favor
##pção
atualmente
abri
##laterra
Mc
particular
##umb
##by
##ático
##ori
Espanha
pessoa
Tri
##tim
Lond
ban
estar
##ume
semana
##quência
elementos
##ty
Internacional
esposa
Fl
##ídos
##ôme
##ider
Cha
apar
eu
bastante
Já
##augu
##ár
##ith
Inglaterra
empresas
eng
data
deixou
Santo
comercial
nomeado
dedic
##ulado
Japão
primeiras
##estival
nem
##cados
músicas
posteriormente
declara
cus
inaugu
##usti
responsável
funda
##&
estabelec
será
desse
##cem
Il
Je
Mic
partida
##pes
ór
assass
design
maneira
dar
Munic
influência
##inheiro
dig
aproxim
##ndido
tempera
##terna
acesso
##hia
alte
sucess
mundial
##ava
urb
ocorreu
capacidade
caval
##ores
adap
Partido
partes
##ínci
##telo
altura
##cal
interna
feita
trabalhos
##ílio
##cent
##izar
##uz
horas
Prime
##var
elas
##iais
insta
tornando
procura
##respo
espécie
deles
hos
##vista
exce
Mag
Gal
##jam
remo
estuda
##ensão
##ld
ime
##ispo
##mentação
ocas
##ató
##hes
Í
indic
refere
superior
Cu
abandon
Centro
##mea
Rod
menor
##ites
homena
##hado
##tima
Bel
próximo
Unido
Instituto
##rilha
##”,
san
##gou
Jes
##ético
bairro
##pendente
Roc
##ípios
Pla
##net
Ir
terceira
Porém
##tia
professor
mercado
casos
lá
##sh
flu
juntamente
##taram
lista
##tórios
voltou
##áticas
Cruz
extens
morreu
conclu
minu
vídeo
##osos
San
Mat
##inação
29
cantora
retorn
Enquanto
crianças
japon
##arda
ensino
faixa
confir
##ini
arti
##icul
187
##ístico
noite
condições
Ainda
emisso
single
situação
##ídu
##inou
tornar
##fon
##zer
participou
##isla
Silva
flores
##jec
##Es
batalha
regiões
ação
Esp
##íncia
torna
adqu
livros
alto
melhores
presente
casamento
estes
eventos
##anças
##ndendo
ouro
##ustra
XX
dessa
começa
ce
##eza
##ciado
Santos
fei
acredita
##III
artistas
You
mante
mal
oito
##rel
##ivos
estúdio
divisão
tropas
reconhec
cláss
secre
##adem
correspo
reduz
direitos
Sch
Char
##ash
##ália
Wal
Sam
transforma
##éis
estudo
teoria
confl
##van
material
Vi
fec
contrato
acus
entrou
plane
estreia
##cção
solo
conven
livre
Record
ataque
Escola
x
Glo
ocupa
convid
perto
##nco
cabe
ferro
sobrev
Casa
presid
##ko
50
mês
##grafia
prepara
##éd
Mor
mis
elim
jogadores
realizado
francês
##ple
Mal
##xima
##todo
##orda
##ight
dura
##ky
Há
inclus
combate
características
observ
Ara
blo
canções
##uras
raz
extra
respec
##lam
decisão
verd
Alguns
##ualmente
turn
perce
##li
equipa
##bun
minist
pá
semelha
permite
186
Conselho
neste
##jos
##ússia
Asso
atra
##ticamente
viol
competição
orient
##mi
canal
pequena
votos
categoria
##manas
##íncipe
comando
##19
##teiro
Gover
vista
femin
Sol
Jesus
ps
anunciou
permi
##cima
Lou
cic
##rique
sen
indús
artista
demons
##usão
ideia
##vela
Luís
##bas
##ércio
##icais
##ws
terras
##hora
quarto
##han
obrig
Tur
##ood
##elos
depu
civil
animais
europe
##rol
Sant
Câmara
estação
líder
garant
Atualmente
##ker
amor
criar
comunidade
##UA
produtos
process
mudou
inspira
##len
demo
##enn
campeão
##manos
##ical
algum
venceu
##mbra
lingu
realizada
sistemas
on
##idad
colon
concent
quer
2010
armas
##ref
reconhe
##ingu
Hist
chama
Gru
##rim
31
##icações
divul
exig
##tureza
plano
##frica
programas
falta
##éu
##gus
##col
intit
trabalhar
Sim
##risto
##pital
pesquisa
Real
militares
US
##ustiça
ante
Hu
ocup
Ind
##ólo
##rí
##50
iniciou
import
III
saúde
últimos
algo
Ban
esco
tema
##ung
##);
##uta
esca
formas
fá
partido
##dados
##.,
##cl
manter
visita
##itada
Londres
##Re
##fil
obte
estra
##como
trabalha
Ori
superf
reno
sens
governador
mem
##ídas
boa
pequeno
prática
Mes
Div
##alidade
mus
cen
Gar
##aran
##pidamente
Vila
retra
rus
China
imperador
aproximadamente
##gada
##vers
fiz
##liam
met
compara
Dom
sentido
acei
sociais
##turo
##encia
criada
imagem
verdade
York
estreou
##ôs
classific
veloc
##bi
entrada
terminou
Lib
Dis
dá
##erg
importância
##ome
Exército
Essa
tiveram
##ífico
##gão
##iência
interesse
fronte
##orias
usa
segurança
escrita
qualidade
##rank
##ndos
oeste
instal
Mundo
##ícia
Bat
ama
inim
##istou
##tividade
massa
Segunda
criou
turnê
economia
profissional
crescimento
##ES
##ímp
sat
busca
##pendência
Ros
##iação
Brasileiro
Monte
problema
##ilar
pública
recursos
minutos
##lec
##ot
##uss
África
utilizado
nomes
vivo
Era
houve
acima
##quela
Th
##idental
decidiu
rapidamente
fol
Sec
##edades
facil
imedia
Dou
general
luz
baixo
aparece
considerada
liga
visto
classe
escolh
tipos
permit
extre
##ree
##ling
vive
##ac
##ráfica
Isso
recus
indivídu
Eu
alemão
começaram
Portugu
domin
termos
natureza
avanç
financ
cóp
##”.
usar
##plos
XIX
distrito
##isto
Ana
isto
usando
afirmou
William
manif
curso
Antônio
caminho
##ães
mand
##én
inicialmente
bil
Fernando
##ust
hor
veio
##xico
comu
##geiros
dado
Jog
zona
jur
metade
##onel
##my
##ance
##ífica
quantidade
torno
amea
dificul
##lubes
movi
finalmente
continuou
Jack
provo
vence
##vidos
relações
Tom
arre
refor
##itora
vig
Bru
reco
Mer
##culdade
##trás
Vic
cruz
40
##ráfico
anal
2012
##bos
##ks
##_1
Minas
dim
informações
recupera
educação
Geral
nave
emissora
conhecimento
guitar
nenhum
Music
ente
##orde
##nam
##itação
Rede
##titude
tempos
Constitu
##old
dinheiro
eleições
manda
##issões
incluem
2008
Rei
##tad
##anas
##blic
nar
funções
##itão
aba
mens
##rom
##esas
índ
introduz
##amente
teste
Alexand
##TV
##íd
forç
##ish
##ónio
Mon
##ológico
descri
gênero
lançada
etc
quil
##itou
encontrar
contr
acompanh
##ique
##orld
anál
aumento
cele
esquer
vem
existência
taman
jovens
##ície
Dem
estados
atividade
demais
aval
##NA
aprov
##rimento
##lin
portanto
provavelmente
##ím
##imos
atriz
##amos
Municipal
rele
cuja
referência
##tun
Sete
publicado
independente
##orme
bal
iria
Clube
##ianos
existem
defesa
unidades
diferente
produto
escolas
hon
pilo
ambiente
Entretanto
descobri
##cip
diminu
EUA
província
##tário
deri
David
##forme
edifício
##/
##vidas
##íb
administra
cujo
Brasileira
gas
##ncial
##alo
dó
posi
##radores
aer
ade
propor
##adá
##timo
##iblio
James
##ua
##mentou
##alha
captura
possuem
Dia
propriedade
2011
crítica
ator
##tus
eletr
disputa
##tais
missão
##rama
##estre
##ânt
##vios
##ademia
##tant
##oa
Nor
##éia
##idro
esses
linhas
##unha
longa
##ted
##ndem
##uncia
##lor
usu
fabr
mudança
##isões
leste
portuguesa
padrão
Jorge
foto
##posto
##gamento
rea
##esc
Martin
lite
medida
nesta
palavra
Pos
cél
espor
2009
##bor
amigos
Gre
Ph
##igas
##erto
Costa
az
destaque
##ndeira
##óis
##égio
##ustrial
##tida
ações
##onas
##ânica
circu
##mando
##Co
esqu
dou
instala
tes
##igra
##ológica
185
2007
##mens
amigo
exclus
aplic
comporta
##âme
campeonato
conceito
equipes
Neste
atrás
##bs
##xas
Oc
##30
rádio
##ecer
##vin
Sha
aspec
passado
Bas
Vol
##ington
##vir
ocorr
##íram
Globo
Grupo
##ans
palavras
americano
econôm
control
##bunal
##guesia
##eram
184
##lares
Futebol
México
Ordem
##Al
##emble
usada
##ndante
##ony
##ientes
Rib
carta
##írito
frequentemente
go
##ervação
arm
##berta
##ure
##ceria
infer
futuro
interess
difí
##gen
2013
Esse
Isa
##tific
bomb
descon
perdeu
##rus
semanas
costu
chegar
##triz
estas
##izou
Museu
desempen
humanos
intens
velocidade
##Ca
##tagon
##ênio
composta
Presidente
peças
##deração
##tio
##taria
inclui
Manuel
Rússia
irmãos
individ
Award
asse
cató
motor
apresentou
chefe
Senhora
##ivamente
cultural
Henrique
##hael
##imes
Che
esfor
precisa
Liga
pote
indústria
viz
##fic
títulos
contrário
unidade
acer
orden
engenh
##nes
Hol
##venção
invas
##imentos
Bill
teatro
tradicional
##cend
veí
demonstra
cabeça
argu
políticas
soldados
##cimentos
##osas
##izados
site
##ay
diss
entra
##ificar
##tável
oficiais
haviam
comércio
2014
sufici
antigos
tamanho
2006
mol
##assem
gols
esteve
passar
destin
War
atenção
pertenc
conquistou
CD
receber
anteriores
##ratura
Mos
##iqu
Tal
##gentina
seguir
essas
mic
baseado
##end
##veram
transporte
##rael
nada
##istem
nesse
##ous
##tina
Cla
##ná
##berg
Está
carro
Er
poucos
##ival
fala
Gen
traz
Ministério
passando
##tle
##ômica
Rodri
##gados
tratamento
##ue
rep
exa
aux
efeito
homenagem
abertura
##iguel
localizado
##porto
nego
terre
##pp
##ferência
Bla
##ioc
##ental
dela
##ides
deco
##eração
administração
183
Pen
devem
gal
Oliv
##áb
Fund
estadual
##iências
Conc
refle
##erial
oficialmente
##unos
alguma
Ven
necessário
Festival
##ílias
Bal
##orden
##gica
##édia
##mon
Comun
fonte
##ibliote
marcou
protes
tradição
inclusive
Ce
dando
corte
respeito
trabalhou
resultados
Jogos
encontram
episódios
##tró
cre
##yo
##iança
nenhuma
##ast
projetos
Sp
##orpo
efe
rock
##BC
protagon
##mor
trá
ple
meados
##ól
originalmente
Men
ris
perf
Gon
##tional
você
##alização
bat
dólares
ár
precis
respo
visão
tentativa
##ude
associ
Del
realizar
sequência
efeitos
Até
Liv
histórias
elenco
##osofia
Mont
chin
cidad
inver
##deu
Ita
##ogra
pós
opor
pessoal
##dades
mão
federal
obteve
Tr
assu
impre
##melho
clubes
técnico
deus
repe
prisão
artes
Miguel
assumiu
##ni
##zz
jul
##partamento
##ódigo
World
##ny
viagem
##ware
##ônico
Augus
experiência
pros
avi
políticos
##gresso
Central
##FA
pensa
parece
forne
##ltra
capaz
##onal
Tho
texto
Pu
##vore
##vações
passaram
Secre
constante
Amb
bom
corr
negó
182
superfície
companhia
##itário
estraté
valores
##dy
ingles
lic
figura
Anton
derrota
torneio
dupla
##tantes
comunicação
som
##now
##quim
aplica
Primeira
##ator
Los
conhecidos
##AS
Gil
normalmente
infant
##ku
Nossa
##hi
necessidade
Rich
baixa
temperatura
deputado
##tilh
bol
casas
mencion
Sta
formato
construído
contemp
##ére
guer
dizendo
fizeram
restaura
Nesse
análise
##reia
tel
Abril
##ges
Cham
seleção
##õe
Eg
cópias
prefeito
trein
bene
distribuição
elo
regime
histori
##we
abaixo
mudanças
##riamente
empa
fontes
Canadá
##áu
Dr
jo
prêmio
Maio
distância
razão
##ilia
chega
Crist
##op
Pop
Res
Inte
Michael
fundada
2015
##turais
##amo
gradu
consiste
aerona
##ixos
questão
hi
##áticos
proteg
Jer
nove
elétr
apareceu
marido
totalmente
realizou
fug
pens
##polita
Austr
permaneceu
sabe
classificação
##As
Calif
Ke
adul
Cristo
espanhol
Pere
cena
diretamente
ord
Dist
Jul
Gerais
Social
##unda
##cular
preoc
Governo
##leo
##vez
##No
##board
Estu
costa
técnica
informação
disti
podia
Dez
igual
##ustria
##enci
##gando
dispos
produzido
##gares
Eng
susp
Estes
faixas
Direito
##fra
tit
escritor
Bor
Antes
casou
sinal
alunos
famílias
apos
##illa
express
Outros
##pia
##idão
2000
Hel
##mal
##inta
##orque
Isto
##inhas
pressão
We
Americ
eta
Branc
bio
cantor
##trou
passagem
prete
Lat
doença
imagens
ec
##public
2005
##cialmente
ger
composto
contin
Contudo
formado
governa
Vir
disp
##embleia
Peter
entrar
diante
oportun
chu
publicou
##ono
emp
tecnologia
##anhas
manifesta
Europe
mãos
##âncias
##rest
2016
desapare
pat
Academia
##çar
Hor
##tude
mandato
perc
símb
Camp
núcle
pequenas
##ford
##caram
resposta
##izant
Novo
produtor
porta
completamente
agra
##mentais
##ntu
compar
respectivamente
Associação
Robert
bre
romance
deixar
##ones
##leta
suste
##eix
artigo
peça
##tino
##mia
##bras
escrav
##<
hip
semelhante
contém
Pat
feitas
entrevista
bra
##ânico
##ies
##ares
dent
conduz
conteú
Trans
Índia
Cer
##itores
dete
temas
##/2
evid
##tações
explic
##vador
versões
bi
##essão
críticas
##iliar
domínio
regular
conce
##ânea
aconteceu
deveria
##tuais
##let
perd
acaba
evitar
fazem
conflito
##essem
ampla
participar
Iorque
vas
##iou
Bahia
60
colabo
décadas
##fera
##rid
localizada
Cidade
##ordeste
##viética
decla
pequenos
Bol
##umo
inten
Argentina
continua
Cou
Tro
##buns
nega
cump
##crito
Bur
##vão
Im
presentes
Outubro
##De
##ings
George
paral
Julho
Pre
##tua
##ntado
voz
vila
ficar
##bres
vocal
afas
inú
##10
##uros
##hada
reais
##iki
##Ar
instituição
Nov
estrelas
##its
##gro
nota
hum
Tre
seguido
##teu
Ve
encerra
tiv
cel
metal
desses
navios
Dar
##estra
alterna
##tale
##unid
conden
especi
Seus
fen
navio
cuid
eleição
adm
##lim
##iverso
técnicas
##bia
obter
IV
##wood
posto
destes
Austrália
##âmb
##imas
prim
##erson
##eroporto
saída
Ama
Pas
imprensa
séculos
##way
Bern
imped
histórico
Gr
usados
legisla
palácio
humano
repro
##cy
##pal
cla
coisas
##Ma
lugares
confro
difícil
Tele
declarou
extrema
incorpo
parceria
##port
##tora
Vit
Logo
paci
pintura
fru
ajudar
construída
Devido
manteve
##ório
##VD
tex
adicion
Cató
máqu
deixando
Setembro
Guil
cores
comand
##questra
##ansão
Catar
##ivas
polícia
príncipe
Paulista
trop
reino
paz
##istir
##CA
##tis
rebel
chegada
##20
Dec
proib
##uí
persegu
80
operações
internacionais
##estões
dirigido
números
depe
##SP
professo
Papa
Frank
##mun
##anhia
tira
##tudo
Serra
##iada
Dra
popula
fis
##«
##ardim
municípios
madeira
proposta
##yer
##ester
embar
daquele
##aix
freguesia
cerim
humana
##eição
setor
esquerda
geração
velho
desempenho
comuns
finais
António
detal
taxa
Trabal
rod
musicais
modelos
Faculdade
expressão
pers
Oliveira
programação
2004
pág
intitulado
brasileiros
estrela
##amp
operação
##íss
Stu
instituições
##ismos
##gin
Tor
##enses
garo
##ann
##cidos
glo
##burgo
##itais
células
##umin
afe
alcançou
álbuns
linguagem
##uls
Ko
encar
compree
aproxima
vide
##tera
ganha
##icidade
##ror
cenas
##órm
Wh
começo
Rua
##postas
Records
sobreviv
##imb
transpor
composição
##graf
sin
dizer
fãs
ataques
##mu
nacionais
##ach
tentou
trata
##ítulo
##60
Junho
##tropolita
expansão
##emas
dan
vege
processos
realidade
método
planeta
advo
vil
audi
##cro
ára
Bre
utilizada
##ír
cará
próxima
##baix
Ferro
casal
Sem
objetos
ligação
liberdade
vest
dor
Star
Comissão
##istia
mistura
##ídia
##onstru
rainha
transmit
delas
plata
apresentação
Pi
##redo
##deus
italiano
sejam
memória
gravação
revol
vinte
Angeles
britânico
literatura
##";
acad
##americano
extensão
voltar
fundo
troca
Var
industrial
##nores
branco
govern
médico
##yn
Março
seriam
##itando
contexto
posse
escala
fronteira
comprimento
##rena
Filho
##urs
níveis
##ls
ráp
##5%
##fonso
recorde
publicação
Vo
paul
cursos
consegue
##ulada
redes
Novembro
##rista
Teatro
##single
##Sa
resto
comemo
consider
bás
##ionalmente
queria
surgiu
##ield
Melhor
próprios
Fel
dessas
##usta
poderes
y
##mann
autores
conforme
fale
impa
##jar
escrever
sala
rua
##adeiro
fas
Eduardo
Prin
notí
##érios
anunciado
##bat
oposição
vin
matem
resistência
##deia
Pan
forn
novela
movimentos
Militar
produzir
##La
pergu
##MA
##lânt
sé
cru
pedido
Justiça
Companhia
especiais
##isf
Aqu
##venida
princípio
##iás
##zar
religião
Amaz
Batalha
morto
sofreu
##órnia
física
mascul
##ivel
convo
partidas
##izo
sug
##estru
exter
agric
##izando
ultra
##3)
Mesmo
letras
retornou
bel
estadunid
famoso
##gios
##eitura
##2)
terem
mín
##iados
diplo
verão
indica
##ui
##lama
lat
herd
defini
fundação
Alegre
médio
Tribunal
apresentado
fogo
apresentar
##adura
##cadas
ment
##ói
##iblioteca
Congresso
indíg
arma
municipal
Todos
##ike
##igna
retorno
certo
bispo
americana
##enso
queda
Agosto
dimens
anteriormente
francesa
##rome
##érea
Ric
##line
digital
simplesmente
les
##deres
Luiz
aument
vão
formar
jornalista
clima
##isse
rival
menores
##Se
possibilidade
##bes
##érias
baseada
##guai
shows
Liber
suced
Rock
trono
naquele
essen
construir
ambas
##olis
##ológicos
adequ
Jose
Cada
Marc
independência
Constant
rej
línguas
conseguir
levar
Di
conde
materiais
psic
Roberto
##=
nessa
Divisão
plantas
fundamental
Jú
##ressão
pot
magn
adol
candidato
crise
profissionais
##40
##mico
alemães
naturais
contato
festa
gestão
Califórnia
Existem
##alh
DVD
saber
formada
objeto
##ingles
ficando
Pou
quilôme
Revolução
País
mortos
impla
levando
Come
Isabel
##ye
Série
180
##ision
Nic
criança
##ídio
portugueses
##grejas
compa
Católica
viu
leis
Olímp
estádio
suficiente
tornaram
Palácio
##tória
Vas
##tidos
##qü
##âneo
clara
##5)
##logia
parla
Prof
Caval
Prêmio
##istão
escolha
ros
Sele
Civil
Mul
##cola
propriet
comportamento
críticos
##lva
##ariam
castelo
181
vê
##nais
meios
ocasião
contempor
Assembleia
manu
coorden
70
opin
##erta
Dezembro
conteúdo
compositor
##pole
##1)
Pereira
indivíduos
##nambu
aqueles
tu
planos
##volucion
cober
Inf
pedra
Educação
Awards
##pul
grau
Charles
realmente
reconhecimento
camp
reinado
##ádio
sof
##itária
##plas
##vera
Van
quarta
compon
##ville
500
compu
Alexandre
Tec
##éticos
sangue
Israel
##ER
adquiri
publicada
fazia
##mem
##íbl
##çado
condição
juntos
chegaram
Guilher
direita
##comp
##80
##ponsa
lemb
multi
##)
Vale
##rões
Algumas
##itoral
ganhar
propriedades
pun
topo
regras
populares
##chos
serviu
sobretudo
##âng
##ópolis
atuou
emo
reforma
estudantes
##Pa
##ioso
exped
atingiu
vál
2017
campos
ilhas
bandas
questões
fir
##iocese
acres
###
##cara
##cund
Final
##Os
Sí
haver
##inada
perda
encontrado
Estad
atuação
##Ne
##Mar
##TA
Salvador
##ximo
risco
##mith
redor
Parque
fortale
Jean
saiu
intelig
monar
chamados
##pt
##cau
vend
parc
##peração
Daniel
##iti
##8)
preso
vendas
fes
Paraná
##ológicas
públicos
##ctor
##bilidades
entretanto
foss
consum
Richard
apel
jogar
dentre
##ndimento
custo
##age
ficaram
Cri
feitos
proce
Ham
##izadas
catól
Muitos
##cipl
##çul
beb
chegando
exterior
##ândia
transmissão
tentar
Constituição
##ônimo
##ritos
##FC
tend
suger
##todos
dada
complexo
desenvolver
À
vul
sexual
##4)
##cula
Fla
Tu
ambient
imple
formou
Catarina
##erem
##ioca
Dent
sair
##olos
##não
##pion
comerciais
Afonso
##Le
Fin
aceita
ciência
ruas
Af
armaz
##ics
impress
viver
utilizados
##fé
##óf
Democ
secund
##CO
##yl
nós
##licação
contou
enorme
##Ch
realização
Q
antigas
##ussão
segue
performa
alu
2003
narra
##IA
tomou
acidente
patro
##ther
##téria
trilha
##ocl
##unt
Don
absol
##ificada
capela
Mich
fortes
conserv
desenvolvido
Art
Cultura
piloto
##jou
breve
##7)
##bit
autoridades
típ
hom
sag
bizant
Lima
Nesta
exposição
cente
toma
Thomas
parque
##ímica
##dora
rom
critic
peso
##gráfica
sonora
concorre
comandante
##igrantes
pesquis
Joa
Ouro
##riam
nobre
núcleo
hidro
Mara
certa
quilômetros
nucle
ato
##entos
Estra
be
fábr
responsa
romanos
invasão
passageiros
imediatamente
##cher
ren
Sociedade
venda
consul
Guilherme
ciclo
deixa
pé
Of
##wer
##tero
late
hora
Estas
##ftware
povos
gravadora
##ban
Han
##tinho
capitão
potencial
##envol
##eliz
##rinhos
fossem
##naval
deslo
científica
##urg
Miss
déci
cho
líderes
##ibus
Arqu
Tar
##ólogo
palco
águas
##_2
Constantino
##ces
##rup
90
##encial
relativamente
XVIII
##yd
cab
acess
utilização
Leg
##americana
natal
tomar
##6)
trou
Portuguesa
##Americ
evolução
##xic
Pad
ideias
##ivelmente
##ecução
##ciações
desconhec
aberto
##cont
Club
substituído
PS
Poss
##istente
recebido
Leon
envia
normal
ress
aus
Enc
volume
##ath
Rob
##ecido
graças
Públ
Disney
cenário
##xos
##gações
Outro
consequ
Bon
mesmos
disposi
exti
##cão
vira
variedade
##ógica
estrang
Soviética
tradicionais
2002
prol
treinador
##BA
consol
##itz
simb
moderna
mú
diferença
Pes
Foram
##istema
crimin
##ácia
filosofia
##ji
##usa
recém
Posteriormente
VI
Egito
avent
aspectos
##-0
##istiu
##órmula
##çou
##ister
meta
liderança
##hã
expa
sente
ministro
liter
completa
inferior
##ínas
Arm
##óveis
Seleção
públicas
ang
Plan
desaf
Cel
advers
judeus
##iso
porto
##vou
territórios
econômica
##irou
##ografia
Castelo
apresentam
elabo
Black
##ashington
dista
predo
Distrito
##tain
Ásia
Tour
##alto
##DB
##EC
##ife
##idor
Hos
encontro
arquitetura
Let
Vitória
##ceb
##dica
bandeira
Mac
vale
discu
escal
possuía
numer
Wa
My
prima
Cara
sexo
solução
História
execução
definição
Inc
Ciências
##presidente
##valho
proteção
##ore
##peão
##âmica
desf
##timas
arque
Mach
##vadas
desenvolveu
aborda
veículos
estruturas
##vados
##eros
observa
conced
Antonio
abran
equival
escolhido
encontrados
Mou
##letas
cima
benef
golpe
longe
##êmios
juríd
Sco
desenho
possibil
##úr
planta
identidade
tér
##isp
##marca
estil
far
##bio
##isc
##hares
reto
Christ
código
coro
##70
encontrou
Loc
voo
similar
Estadual
duração
35
pap
##pressão
coment
vant
afric
##uto
2001
praticamente
acadêm
caráter
conv
##utador
Região
grego
decorre
realizadas
##vais
mec
azul
Fundação
Sér
jus
pesquisas
##pass
##ísticos
##uso
##tone
Kar
documentos
##PS
##tador
##mano
consci
##icialmente
edições
violência
##tern
##ésar
Fam
##jor
Red
dens
traduz
##9)
Az
motivo
chamou
selecion
descoberta
Cul
particularmente
Desta
Def
179
##nowiki
edifícios
City
Love
rios
titular
aplicação
##Eu
Cle
Estre
trouxe
hospital
poderiam
característica
##rava
Gol
Scho
residência
quadro
##cor
##arte
faze
Então
templo
Ferreira
considerados
Rádio
ferra
##tein
Far
arran
escul
colocação
gravado
##RA
termina
##unes
org
##inados
Flo
disponível
ur
Rus
monu
assinou
document
atuais
museu
coisa
etapa
Atlânt
culturais
XVI
mídia
assina
Colégio
Suas
Corpo
prefer
estrada
posições
Washington
frequência
##sex
##quis
artilh
Augusto
aumentar
trabalhadores
Ger
mestre
tratado
recentemente
##chi
##enças
dança
finan
ves
Artes
pediu
elemento
categorias
mudar
treina
conclus
Fevereiro
dro
Sara
Campo
Dois
##estrutura
promover
olhos
franceses
terá
muçul
fundador
##kin
##formou
##ênd
Va
exibido
estações
estadunidense
##hn
gás
adquir
##tava
Que
recome
audiência
colocado
corrida
ocidental
##íficos
prata
##gãos
irá
equipamentos
podendo
Gom
1990
vitórias
sedi
Conde
transform
##ónia
coleção
##ína
Lar
mecan
muita
sam
##hat
din
negócios
##12
##çada
Castro
ingress
próprias
reconstru
Vel
den
##itados
##inastia
extremamente
media
trás
infância
usuários
instrumentos
micro
FI
romano
infra
medidas
altitude
nascimento
prem
supera
britânica
Espe
##ket
adic
dificuldades
bru
atingir
textos
produzida
fenôme
talvez
##órico
César
ques
espiri
ponte
seguiu
revelou
investigação
relacionamento
##-3
West
##idar
ocupação
##íam
Outra
facto
vencer
descend
permitiu
##pest
invad
destas
igrejas
preocupa
originais
inscri
##Ra
Pl
St
anual
bater
##ônicos
corrente
representação
##ilha
##ium
atmos
guarda
concurso
##êx
##ênt
##bela
cem
destino
Smith
Blo
projec
##emos
mad
fundado
Econ
##ificados
celeb
quinto
Natal
##tron
paulista
André
crime
##toria
papa
trip
Clar
##jado
autoridade
Sin
##récia
ataca
terreno
Três
Corre
fatores
intenção
Nações
Administ
aqui
##ronze
Mira
drama
apaix
métodos
##PA
##mba
##ires
##lado
destaca
ras
32
##ardas
von
Ilha
##ótes
Organ
satél
máximo
##mática
Ferna
clássico
merc
Arte
assegu
prédio
carga
Pernambu
concelho
europeus
##ht
##undo
muda
computador
##ízes
meia
tenham
##rés
tom
##SA
##ntam
vencedor
derrotado
verdadeira
Cro
##éries
##metros
brin
econômico
ajud
Sebas
efici
profund
Champion
cristãos
##iago
Gonç
tropical
##cep
mag
expor
ensa
vaga
símbolo
organizações
##tâncias
princípios
estabeleceu
preju
descobre
##teis
Cir
religiosa
##éria
integrantes
coração
oportunidade
rápido
matéria
funcionários
##úsica
percebe
Freder
Hall
estima
##chas
Gomes
evolu
sovi
supor
##hal
carre
agricultura
##leiro
artigos
Desenvol
##rosso
falar
Superior
gere
estudar
##ct
conhecidas
##gor
##ônibus
figuras
##Ba
gosta
invés
rel
##ntando
intelec
escravos
Za
utiliza
Air
suj
rodo
torre
##íba
##bus
Departamento
perder
##</
##lex
Romano
##ificou
letra
##tiram
##erar
propa
pul
fins
concord
disputou
inimigos
estudou
##grou
Die
curta
##minante
pertence
Nu
Saúde
equil
compra
cro
pratic
Ep
1980
Barb
anim
Marinha
##nci
##écia
Interna
utilizando
##hu
possa
Net
##BT
Lee
impacto
medalha
continuar
Hoje
mito
##roso
animal
contudo
##ien
rodada
##lad
Alberto
Chris
acum
##olf
agrí
##çamento
fundou
##iosa
Max
Joaquim
##tedral
conquist
##Na
##ivis
1999
##inato
##culas
claro
Britân
Sob
##:
##ontade
General
##tte
Play
princesa
comunidades
##icina
Inde
##élio
Ram
tale
##elh
##rer
Rodrigues
##OS
1970
matar
mostrou
##pendentes
fix
##úm
Carol
Sar
Show
acompanha
determinado
enviou
reunião
aquele
##ouse
Phil
frota
Grécia
##Lo
Campos
vio
anuncia
mantém
Ala
##idência
ferrovi
##deste
##tanha
Banco
seres
viria
completo
reserva
##âm
ordens
##íns
bens
##ilares
Carvalho
temporadas
Rog
Blu
##landa
##izonte
reper
gan
ilustra
##Do
##tz
Uru
##dições
jan
##táveis
Outras
##TP
soci
Bul
nor
##ficamente
isol
Enter
doutr
participantes
doze
##fos
##teriores
associação
ajudou
##pop
prêmios
Cur
derrotou
##lândia
##culação
enviado
##aste
verdadeiro
Sousa
quinta
##eda
jor
Áustria
existentes
##ania
Alme
oferece
##gico
Pic
consecu
##IC
Fal
##ustralia
##itch
##ênia
##ínsula
King
aposent
##ndado
milhares
##ters
oita
##tância
centros
disponíveis
imperial
Jun
assumir
Dias
##itu
Rad
verde
ônibus
interro
Fri
Pelo
rit
cicl
excel
Brasília
editora
dú
##tente
pion
School
universo
##yal
##zinho
Pass
##íficas
servir
##Pro
##tela
agu
permitindo
aleg
roteiro
defender
##":
##trem
decide
CO
testes
##íde
Nessa
jogou
Jackson
Polícia
idio
Federação
imigrantes
inser
serão
Senado
##unas
##inária
Lea
americanos
costuma
Sub
Latina
conheceu
manutenção
simul
##SS
cál
editor
incent
recente
órgão
##ráficos
realizados
##well
##Ro
##itê
frag
internet
##óvel
##meros
fran
##gais
Bos
##vores
responsáveis
300
##grafo
##rupção
Torn
Hot
alfa
##ônicas
Servi
Oriente
modern
usadas
anti
Av
##cerdo
explos
milhão
vontade
âmb
exploração
conseguiram
emerg
Branco
##oul
desenvolve
Cra
joga
gravou
##tainment
##chu
##ologias
Senhor
redução
##of
estr
Ricardo
adaptação
seg
manhã
pés
romana
japonês
Hospital
cidadãos
##jeto
##$
##del
Bus
convidado
##ntação
Coreia
##óqu
russo
margem
consumo
moradores
##íça
Aos
lago
pensamento
##odos
##ificações
Ocidental
##mul
Força
honra
aldeia
formal
Ly
000
empresário
plataforma
##win
carb
escritos
registro
enfrentar
Ry
Henry
famosa
formando
quadrinhos
##18
Gabri
estabelecer
##mato
1998
contín
patrim
tivesse
##logo
discos
cura
reação
jornais
união
##aliza
##elhos
momentos
turno
##iliares
Bob
praça
solic
utilizar
##IB
Duque
atores
gravações
Greg
cabo
viveu
vermelho
ox
inglesa
##any
Jim
rap
##Car
tocar
##pree
##çu
##ême
##eios
Brown
Estádio
##éticas
Avenida
##lome
alguém
##,"
extin
poucas
restri
##BS
elevado
colaboração
##ID
##Mo
##oroeste
##rian
Park
Marco
##tificação
interesses
##ítica
carros
hipótes
Sw
##érito
suporte
Partic
instalação
36
expul
filma
aprend
##iversário
conec
vendeu
150
músicos
##ily
##tipo
##indows
interpretação
##back
revistas
##ntamento
descreveu
##ars
##alidades
consequência
##ânc
##ius
viole
físico
provas
Leão
espírito
feminino
##din
2018
Praça
##liga
juntou
##real
Son
Irlanda
classes
batal
expedição
poeta
Bet
Curi
aparição
##ciam
Sho
Rosa
usou
reform
seguindo
##deal
Cos
sab
##):
dema
##ósito
##ntaram
exemplos
banco
bilhões
Espírito
Verde
cresceu
produziu
##zas
renda
Jus
##antas
atua
vere
discipl
crescente
contratado
universidade
Juan
terror
contendo
##gel
##desse
##ship
limite
Almeida
histórica
Filipe
acontece
apoia
séries
##tn
quím
moral
Berlim
Ribeiro
resultou
denominado
##issa
analis
alcançar
estrangeiros
##ek
##vie
##tane
Leo
onda
##ission
profunda
corpos
##quad
pec
mostrar
festival
##ates
indígenas
##field
Mary
##mino
##rich
Ira
Oscar
proporcion
infantil
republic
iniciativa
impos
facilmente
Belo
desejo
secretário
Lá
##tram
cartas
compartil
##IS
Ze
abriu
##jamento
chamar
próximos
##jus
software
##ixão
consag
ameaça
##nces
All
##icago
Suécia
individual
impe
Essas
padrões
##rum
mexic
limites
##mentares
##tta
##imbra
##tions
trabalhando
##anço
Dal
##raram
alvo
exerc
regional
alimentos
semelhantes
##ísmo
diferenças
##/0
##igração
contras
assuntos
##mond
candidatos
##Bill
Ali
##iário
reserv
faleceu
fé
##ouro
Mur
Mark
humor
preserv
##pin
motivos
guitarra
aut
Esses
fantas
garantir
italiana
caiu
bairros
°
ala
##íncias
##bul
##the
Johns
historiador
##rey
##11
fach
Popular
##ceano
pele
lados
tempest
conflitos
absor
objec
prazo
naquela
##sequ
ile
Linha
órgãos
##posições
escolhe
aberta
mata
Engenh
inimigo
##esia
tradução
##baixo
Sand
decreto
##capa
Pouco
acrescent
Patr
roub
quebra
igualmente
##fes
civis
professores
democra
exceção
coo
inteira
##adeia
autoria
império
##pto
parada
##tto
posterior
##ciar
bronze
sobera
vindo
Windows
indivíduo
##uru
âmbito
##ócia
regra
agente
advogado
lançar
revolucion
##In
Hill
amare
permitir
##tões
##inter
Pernambuco
Ó
lutar
##idores
##inguém
##ventude
##olas
##quete
##quista
Holly
barra
aliados
semif
papéis
assassinato
##more
Homem
##bá
##atório
canais
popularidade
dit
designa
##cife
##orro
Chile
Jan
situado
naz
denominação
vocalista
##pé
aniversário
avião
significado
PC
produtores
Ev
core
Equ
durou
recusou
##pi
Barcel
justiça
45
Beat
Lago
face
inéd
partí
##ianismo
proxim
##dão
configu
vag
XVII
infec
tan
##Sta
indo
derru
rápida
Desenvolvimento
gar
estando
Fra
patroc
esforços
##nome
fortemente
trama
direta
levado
criando
##leza
pobre
concentração
regress
perdendo
##tive
casar
espanhola
##Un
##tral
Grã
últimas
##AR
subme
ino
estréia
vendido
conclusão
doenças
aeronave
##15
##far
dito
recol
levaram
videocl
baix
Domin
localização
##-4
##ctos
dissol
índios
continente
##tti
brilha
discurso
entidade
personalidade
poe
passo
1960
atuar
fábrica
assunto
sinais
quin
##torial
habilidades
cô
Sel
sinto
embaix
urbana
pinturas
moderno
possíveis
presidência
##oland
##rinho
global
grave
medic
cm
Stre
giga
opinião
componentes
##itários
Cinema
instalações
##tróleo
começar
##Gra
1997
altas
pontu
##gráfico
promoção
créd
##identes
explica
##vision
Suíça
vocais
revolta
##gadas
Inicialmente
autom
##án
Teres
protagonista
##ild
cad
ram
regula
##ministro
##3%
impression
Tim
prome
elétrica
frequent
exclusivamente
Wo
tabela
##dado
alterações
britânicos
##25
missões
Príncipe
conselho
apresentações
##sem
##unção
unif
anex
Bento
perspec
representantes
fluxo
documento
MTV
Saint
prision
destruição
aulas
##upas
##enciado
##Me
cred
revela
reconhecido
Scott
Música
##ose
chave
##gs
##táculo
ficção
##Con
teleno
enterra
afirmando
mm
domés
Unidas
práticas
van
##ms
fácil
Joseph
densidade
##cóp
pô
Alves
partidos
transferência
##tiba
##hados
Maur
##uda
##cant
Mem
Gir
dividido
descobriu
soma
situada
##fal
ramo
máxima
cobertura
funcionamento
Sur
portas
crítico
conquistar
guitarrista
##ij
líqu
Coimbra
artístico
daí
calor
progress
##lie
##ângulo
tribu
##riga
imposs
adolesc
##ille
mensagem
suce
competições
##16
##4%
anda
##eck
##ink
Olímpicos
##onald
Toda
estatu
##urgo
danos
##toc
##vante
Mário
Possui
espacial
##tropolitana
har
Idade
esque
roupas
Tratado
top
Pref
educa
vítimas
disponibil
##vy
Luis
comissão
múlti
rural
Ty
##tização
denominada
##ison
árabe
zonas
expand
exibida
sacerdo
Joe
treinamento
##GE
juda
curto
fornece
máquina
elogi
Sistema
chamadas
relacionados
##burg
##ural
semi
##cebispo
##ortaleza
emprego
##kh
riqu
recep
Muitas
descreve
enfrentou
geog
rote
Louis
##+
##ôno
##eitas
latim
Figu
##nderam
Human
Flores
descrito
Us
##mand
##rador
invent
esforço
amos
bola
aeroporto
aparel
formam
ausência
Primeiro
##MS
##pan
acel
Ceará
enredo
##_3
namo
crista
##Su
##Bre
178
Entertainment
##São
duque
##mbo
Tw
##organ
arco
##erante
##ibe
tido
razões
##rad
WW
pista
##lou
##bral
##quês
Atl
lojas
amplamente
Horizonte
IB
##ráficas
aparência
##IN
Sto
##rez
##Gu
Ib
solu
interpretou
descendentes
##orra
detalhes
religiosas
##mbia
Spe
baixas
períodos
FM
##presa
pintor
inaugurado
##úl
acha
peda
carnaval
arro
##rático
cerimônia
##lei
Ku
##bine
eventualmente
legal
cumpri
podemos
recentes
##istos
Carl
Vicente
##íbrio
##tidas
teriam
labora
apaixon
amplia
representante
Rece
##uminense
pudesse
comédia
##Billboard
minha
prefeitura
caça
notável
estudios
##low
restantes
realiza
árvores
engenheiro
##Bo
exibição
##nal
##itério
Madrid
##ata
On
##vens
Ren
combust
Oeste
usuário
##elli
Big
##essões
##também
padre
dinastia
encontrada
aparentemente
##ampa
##mont
Legisla
performance
##90
transição
aeronaves
##ésia
Alto
Mato
defens
proteger
##pra
Ti
##triar
Internet
animação
lançados
Pode
esporte
potência
##inga
##ástico
fusão
promovido
##lar
Só
tela
Norma
Ano
crimes
##geral
preço
33
##mira
trinta
altos
##kes
medie
introdução
##izade
Sendo
distingu
espiritual
##El
Faze
pagar
colocou
card
colocar
inverno
motores
produzidos
EP
sou
Rol
Amor
agentes
objetivos
leve
Jardim
Oriental
populações
Parla
cristã
Chicago
envolve
##work
Dam
Marcos
eg
sepul
incênd
libera
uns
capazes
Europeia
fla
aves
suic
##FL
Game
##="
astro
Acre
capítulo
##ices
Supre
marcado
nascido
procedi
notícias
##ndon
Sport
vantagem
##mé
##zinha
matemática
sexta
elevada
Ya
recorre
tomada
religioso
Terc
rumo
senhor
desembar
espaços
câme
resga
disputar
apresentando
##rico
Mill
culto
interval
Hit
##ning
raça
Alfre
temos
##ball
nosso
telef
coloca
desper
permanece
##ramente
UN
passe
contar
##ástica
províncias
##RE
400
exist
salas
Nordeste
centenas
sucessor
Fortaleza
##além
neu
sil
japonesa
localidade
##don
posteriores
clássica
definido
##ited
ati
repor
Recife
receberam
nossa
drogas
Championship
##7%
Pira
##Por
1996
comparação
aspecto
segundos
situações
experiências
deram
floresta
##meras
Lopes
associado
instrumento
##avi
##itam
sta
criados
paradas
Hollywood
europeu
religiosos
Orig
fotos
##mentado
##americanos
##imar
encontrava
##itro
##ingos
She
meu
aprovação
##cidas
concer
senador
viagens
habilidade
##penh
crit
branca
##êu
Ate
asc
horário
tentativas
##gador
Lú
##ises
modernos
##umes
##ânio
##itido
primo
ocorrido
paredes
Rena
Bow
##alizado
extrem
Martins
petróleo
possivelmente
##45
Stan
Tecn
##centes
evang
superiores
##2%
##geu
Dina
toca
pertencente
coroa
êx
##escente
envolvendo
bon
Programa
tio
Sebasti
restante
bic
##borou
##únior
dividida
relatório
##8%
##ence
1995
músico
tentando
dí
lou
foco
influências
Rel
Comics
árvore
##ótico
bateria
margens
ordenou
representar
destacam
intervenção
Cho
refu
sítio
conhece
volunt
##osamente
recebendo
##div
devo
Bou
Índ
mantendo
executivo
Hal
desce
econó
Michel
##AC
Jornal
folhas
##fim
##velas
erro
Andre
encontradas
casado
Machado
Nick
##ross
reiv
Maran
cancel
influenci
##lação
larga
votação
equivalente
##fund
##érico
povoado
##core
Colle
Ministro
desenhos
##ME
Jones
diver
conceitos
177
artif
samba
Aires
##regado
juiz
##org
##gura
##trias
cadeia
mesmas
revelado
cujos
visual
Gabriel
pena
nação
fachada
##st
Pont
##çú
##uck
ben
##ânicos
recru
velha
causou
##hen
Cin
descar
homenage
Will
bases
financeira
representando
##ônias
ideal
engenharia
gravar
##mero
##íaco
Ten
voto
Frederico
Fox
Adam
segre
Sé
incapa
indicado
Barcelona
##iria
League
tiro
atras
rejei
distin
175
press
Rainha
teorias
necessária
##NU
Escócia
Universal
altamente
##inando
Pesso
##So
##blo
Hon
atmosfera
confirmou
Edward
##cr
Pia
log
descobrir
##DE
Ps
##rita
Prov
cere
previs
ganhando
Atlântico
Fro
construiu
tendência
interessa
##fin
Cy
adultos
Rub
retorna
derrotar
Cre
Dre
##inário
##ndário
##gam
café
econom
atravess
##ávia
##doeste
mente
inúmeras
##gên
##inger
Fran
Stra
times
traje
Jon
canad
aquela
posicion
##refa
página
revolução
divulgação
##tid
##ariamente
##asa
Praia
Marcelo
veículo
##onia
##seis
Bíbl
avis
Reis
direto
exceto
tensão
orientação
##urgia
ofens
empate
registros
julgamento
fases
1994
oper
radia
Batista
dificuldade
Gram
estabelecimento
Nel
##eirão
Lucas
fator
coluna
entrev
adquiriu
definida
determinar
##6%
proven
aparecem
##fei
trecho
Bandeira
usam
##postos
mural
assist
custos
Company
Público
Secretaria
##unk
##émio
dep
##.)
Zel
bilhe
Cultural
##itadas
supri
brasileiras
##9%
Get
cír
conex
##ólogos
Times
ativa
atacar
tempestade
certific
##óso
pain
White
notas
necessidades
##AN
pouca
retornar
estratégia
##beth
piano
utilizadas
medo
arquivos
abre
rota
##rática
passam
médicos
##nsul
##mentas
##onatos
matriz
constituição
Gas
Luz
Evang
##cea
##õem
italianos
sól
##ganda
descober
retirada
Imperador
vaz
##gênio
Rodrigo
fazenda
##thur
##teira
bordo
ligado
##edas
##minal
ocorrem
1991
lhes
Barra
Franco
surpree
##An
Tel
Preto
carne
##eir
sorte
FIFA
lógica
contava
ultrapass
historiadores
Sr
Boa
Cabo
##mossex
Corte
Melo
Song
repu
melhorar
independentes
##élgica
assume
line
encome
ocorrer
desempenh
##dical
##tendo
compet
Estudos
aplicações
##feira
cargos
transformação
##iadas
Capitão
Estação
ninguém
sucedido
compil
localiza
intitulada
índice
##rop
Má
##indica
##tizado
recuperar
##esp
##wal
vie
1992
egíp
românt
comprome
##lash
Palme
negros
biblioteca
##rie
Sus
decis
gêneros
##cá
##ika
Jr
Victor
pessoais
sucessos
históricos
individuais
privada
##Po
Yu
##elly
Campe
Souza
aliança
nordeste
fede
oriental
##13
Night
##ipais
##atas
gratu
##úne
boas
moda
radio
Atlético
permanente
##gno
##úncia
Pier
sequ
Braga
dirigiu
##1%
Via
poesia
homossex
##imp
praia
orquestra
##peu
UE
Lan
estilos
inteiro
Ray
atos
inse
nações
##ep
Wat
beleza
externa
Constantinopla
##hando
Ross
Júlio
atletas
existente
It
aper
aviões
##ani
##To
loja
masculino
##•
Fol
jura
Pinto
mínimo
dimensões
alternativa
bloco
invest
##teor
##ínios
requer
pagamento
Lua
Depu
Santiago
Lad
##tidão
salvar
litoral
campanhas
##AP
favore
##Em
##gias
páginas
Sá
##cura
rever
surge
vivem
Mendes
fabrica
clientes
##itir
##mobil
##ítulos
##óquia
ritmo
##fu
##âncer
##atória
Países
Imperial
avaliação
##cons
anc
Pela
Polônia
circuns
flo
DC
Villa
Dentre
##identais
pertencia
tonel
espanhóis
equilíbrio
##mir
ving
##ap
##hy
##ilton
Guarda
argent
##ante
Pac
reis
fugir
câmara
química
Ponte
Especial
videoclipe
##OL
##teza
hel
associados
##ciano
Napole
camisa
presos
abordagem
cientistas
peri
Grosso
medicina
CE
estiv
Bélgica
ré
pede
Johnson
acontecimentos
auton
solar
confer
artística
##melh
##ifere
possam
##Jo
Top
serve
##wan
bis
list
primi
##itações
##áx
aceitou
perdido
Medicina
concerto
moléc
##uela
hid
##tismo
##âmetro
Green
Uruguai
consideradas
##ury
preto
proba
cinemato
daquela
satélite
##kov
##mengo
##Com
##idi
##press
Aérea
##Bretanha
proemin
Pará
onze
apresentada
referências
Vida
máquinas
pacientes
##quesa
##çúcar
fama
urbano
comunic
incluiu
montanhas
separação
Way
reel
##14
##onna
Goiás
fabric
fundos
estaria
turismo
ergu
herói
filóso
##âns
##rade
grega
##orrência
publicados
##esto
pere
seção
colabora
controlar
##vér
negro
fenômeno
Den
lutas
viaja
especificamente
gl
consciência
relacionadas
gran
concluiu
Billboard
declaração
anún
cantar
hipótese
Aeroporto
recuperação
##cab
mang
Letras
impedir
departamento
##gava
##vando
familiar
question
influencia
##ory
34
##dação
Técn
mass
consta
##ntados
Sobre
andar
dedicado
Cat
Hitler
inspiração
corresponde
##dis
Gold
elite
ascensão
Paz
American
##dig
Band
Sebastião
anar
detec
Regional
testemun
##cad
Decreto
circulação
1950
Síria
reformas
telenovela
##rag
##sey
interromp
colonial
japoneses
descoberto
negociações
cob
Sala
nerv
##binete
contam
leitura
sintomas
mostrando
Jord
gelo
caixa
guard
concre
renome
aumenta
##ube
38
rig
chão
Jerus
Carta
lesão
ocorreram
##ken
morrer
distritos
determinada
ensina
próximas
clín
Médio
festas
College
##upar
situa
debate
temperaturas
##set
Agu
Gio
Tan
certos
deuses
parede
largura
policial
conservação
##)"
Torre
ácido
intensa
combinação
FC
##jada
sáb
##kins
Paraíba
Tru
reta
Fazenda
governos
tradições
##zi
##agos
##vite
##gover
Soci
nuclear
culturas
##qui
37
Taça
Sérgio
aproveita
compostos
constituído
precip
participaram
##irem
##essas
##ressa
Massa
Produ
cuidados
One
##gueira
estat
satisf
aí
Walter
Família
diploma
feminina
##plic
Aço
National
procu
quinze
inúmeros
##cações
Negro
UFC
Todas
recurso
International
##Te
##cap
##ônios
marí
tran
restos
vieram
universidades
##râneo
Espa
Vasco
##restre
quis
##estina
certas
Mun
opção
poderá
assinado
Organização
Vargas
surgiram
##PE
ligada
livres
tribos
definitivamente
##dire
##ration
morta
aprovei
conhecer
inteligência
Gusta
abaste
servido
sexto
colegas
pratica
aumentou
decisões
divisões
provável
##box
##tragem
##els
##atual
Stone
origens
Jerusalém
céu
hab
vídeos
##restling
##Be
##ércitos
doutrina
administrativa
CP
ib
##aren
##rica
##vora
##étrica
católicos
##nch
High
##táculos
estaduais
##TC
itens
décimo
aparecer
classificou
SBT
tarefa
projecto
##dita
##present
cavalo
oferta
podiam
descrição
perspectiva
Dio
gram
Cole
periód
interno
substituir
##alves
Fluminense
composições
Defesa
amizade
resolução
Peru
Time
##ndeses
algor
1993
Jas
Wilson
##Ex
admira
Dinamarca
BR
Silv
iniciais
##uf
Colo
aére
##espera
Street
Português
##17
##cipa
causas
singles
deveriam
australia
designado
##AM
Kim
##ótica
Grand
extinção
integração
##arn
herdeiro
discussão
##íqu
##élia
diá
Norue
diferencia
##lov
vítima
Mestre
Santana
negócio
reduzir
destruir
fundadores
eletro
regionais
gregos
familiares
organizado
Soares
##leto
ilum
Buenos
##itamente
funcional
acreditava
camada
noroeste
estabelecido
##cote
Tay
##ianas
##pecta
Wood
rodovi
##ífer
WWE
##tição
##âneos
##êncio
ouvi
braço
tratar
inauguração
##une
pron
##ungria
cú
Hy
Kir
Mata
Harry
polêm
evidências
surgimento
pó
Júnior
Andrade
##estamento
##',
##ster
partiu
convidados
##itiu
circuito
Obs
##ltima
##roup
176
confronto
nomeadamente
##rei
hem
##ítico
apoiar
##ali
Gonçalves
Bom
##pondo
##olanda
aquis
estim
carreg
fórmula
Williams
impro
causar
##lando
alma
avanço
caminh
impera
Gl
funciona
resolver
integrante
##500
Mano
queb
dedicada
frase
Bíblia
inspirado
toneladas
inaugurada
##NT
##etano
##ndere
trazer
convite
étn
Texas
sacri
##lamação
filmagens
combustível
##Da
Day
##ntada
##vindo
eixo
vias
proprietário
##//
fatos
filhas
nomeou
órbita
Vermelho
Fernandes
Movimento
cavalaria
##cte
Zona
##ânicas
Tendo
marcas
visitantes
Vil
Turquia
exatamente
Curitiba
correspond
computadores
kg
##úrb
##tono
web
##hians
##parta
Guer
manus
Nelson
liberal
##mit
##colas
mission
Maranhão
prossegu
##tures
teles
pedras
Finalmente
significativa
##comun
Arthur
juntar
##king
band
eman
Pública
escapar
concertos
artilharia
assistência
##uc
##odor
tip
continuaram
parcialmente
Cláu
Administração
Comitê
colônia
propósito
porte
arquiteto
específico
##24
##eixes
simpl
câncer
guerras
vendidos
##venil
dono
transferido
##PR
##ocê
##ult
Dig
costas
sucessão
var
assinatura
hotel
Studios
Original
end
##iderou
India
Iraque
torcida
fornecer
partículas
Álva
Paraguai
##nie
feliz
Ens
equação
##Rio
ia
cedo
##óstico
##inthians
mostram
técnicos
adversário
##oli
Fez
raízes
##roco
House
mobil
##ificando
faculdade
Engenharia
desenvolvida
##ii
pior
ingleses
considerou
Leopol
vegetação
escritores
##fogo
Segurança
reconhecida
##beu
##quil
fasc
trem
alfabe
variáveis
comercia
franquia
resultando
volumes
##federação
acompanhado
causando
ambiental
fib
‘
##‘
##ami
tou
##landês
polon
algorit
##down
gén
Média
olímp
Gro
rica
Apenas
emprés
semelh
simbol
demanda
comentou
manip
##ificadas
Carolina
permitem
estudante
aérea
esperança
envolvidos
##bis
##idel
##ísica
Pesqu
##alizada
brancos
sudeste
correspondente
cé
##orial
##ónica
depressão
sai
Viena
artic
eleitos
eleitoral
##face
##udio
Stor
esgo
##yr
Eric
televis
india
terminando
VII
Steph
Noruega
ligados
##rise
##ormes
Steve
Baixos
##cesa
Sun
Brit
amar
Rocha
Vieira
notícia
Biblioteca
Mike
cônsul
relatos
propostas
48
Gua
már
##doso
##éricas
Clark
esquad
Trabalh
Conceição
carbono
program
ciências
escolher
##200
##merica
sugere
lançaram
humanidade
documentário
##!"
ficam
católica
##med
Opera
##-5
adia
pira
##eixe
ocupou
Associa
acusado
PT
Verão
Marvel
árabes
assistente
publicações
##nau
intu
##idação
pobres
##çando
Atra
Belém
Ferra
Teresa
compre
##48
afil
Napoleão
Portanto
aprendiz
variação
Ken
Rafa
tril
Diego
selva
requis
##OR
##ornada
irreg
lenda
confiança
##oni
##lhes
##trado
##zendo
triun
##iber
sessão
contando
preços
marcando
comumente
representam
##pot
Bir
Ima
poderoso
estudiosos
operacional
Auto
seca
tera
integrar
Parlamento
dispositivos
##esco
ativo
começam
exercício
participações
Urb
metá
##ulações
europeia
Br
##hadas
##çados
Bernardo
Flamengo
conjuntos
##Ta
Royal
cujas
##enamento
gos
Livro
europ
##Station
rádios
possuir
##ecem
vigor
forçado
##hr
##out
Brig
Padre
Angola
chinês
deseja
gerais
considerar
incluir
policiais
ferramentas
Fic
mat
##torado
manifestações
Len
brig
depende
terminar
fronteiras
##idal
rico
reuniu
##presenta
aceitar
famosos
incêndio
associada
muçulmanos
##feito
abol
nele
##ifa
##ety
cerco
chance
incluía
##35
##çam
Aus
Kat
lit
##75
##ret
Mora
XIII
Taylor
##iá
1988
reci
Venez
catal
neuro
##grafias
120
Base
Pala
quente
Francis
classificado
##-9
Leste
Corinthians
fracas
atuando
atacante
vencendo
pontuação
##queles
considerável
sonho
Amazonas
substituição
##sta
Jeff
teat
actual
entregue
ocasiões
##reiros
acervo
gravada
anualmente
##ndu
##itan
torce
dançar
defici
sudoeste
##rativa
Ambos
impor
vender
riqueza
##postamente
óleo
Apare
jardas
##luindo
adicionais
organizada
profundidade
Lew
##hamento
entraram
##mático
graus
constitui
##zy
##úlio
vapor
extremo
construídos
##sar
Ur
rob
dubl
implica
descrita
controvér
##amentos
##chal
rad
demol
clássicos
##Or
Catedral
impostos
referido
Rom
United
Governador
contribuiu
ina
Rick
preciso
subsequ
orçamento
similares
transformou
##hel
Pá
peixes
capítulos
intensidade
existia
Professor
exércitos
##Par
abrir
censo
##pso
Vin
Mario
Zelândia
fuga
amiga
major
criadas
##MG
##pace
160
Paula
coinc
vinha
Particip
substituindo
imag
agress
lateral
limitada
investimento
##tec
##deram
ondas
salva
definir
Moder
canta
completar
pico
nobres
dedicou
##tém
##brou
##ômbia
anime
confund
montanha
Secretário
Ú
continuidade
populacional
##medi
##cionado
defendeu
autonomia
##idez
##estes
1986
culmin
comprar
colocados
##cool
##viam
cun
##intendo
##izações
conter
dispositivo
##idge
Les
atração
##PC
##ev
##Star
incom
ponta
Estrada
dezesse
dependendo
Francesa
acabaram
radiação
vizinhos
##tiza
fós
mode
necessários
Rem
Cunha
alcance
##EL
Est
prior
Columb
agência
dirigida
científico
##;
##fel
##ips
May
patr
russa
futura
seriado
dimensão
##tária
##iedade
nomeação
decidiram
elé
##65
##uo
##Mel
##ffs
1930
Tony
taxas
Ciência
setores
condenado
PlayStation
##ll
tecnologias
##Ga
##urt
áto
##parou
conceb
normas
carioca
Cax
entender
Gri
Sir
##itter
##tizada
colocada
símbolos
municipais
Poder
vento
liderou
Republic
##taneamente
variações
Fis
Sag
bur
##ranking
##ímetros
subord
iniciar
Zo
Live
Canal
histor
baterista
escritório
Las
pred
parar
pesquisadores
##book
jud
pse
##adoras
Nicola
ficava
Editora
rebeldes
espal
Doutor
Serviço
expecta
abandonou
particulares
##bara
##formas
Tempo
armazen
recomend
##22
##junto
##ragem
1989
cadeira
##ordes
cron
Alexa
Carlo
placar
atitude
mecânica
oferecer
constituída
##key
##ray
##aldade
Moscou
quadros
notáveis
entidades
tripulação
prisioneiros
##vés
##ceis
Corn
recomp
batalhas
iniciado
University
##êmeas
##enciais
indústrias
espectadores
representado
##arenta
comprom
sig
viajou
designação
Ata
paga
##lesiás
cento
faziam
cristianismo
##ând
##adia
##ting
irmãs
atleta
Esporte
baseados
##errou
Ilhas
##chester
começando
legislação
implantação
investimentos
sue
Hard
cens
Eliza
color
efica
ocupar
##cções
##gueiro
rosto
conselh
##Man
Ob
##ches
age
##rosoft
compro
aliment
##anal
##icano
islâ
mortes
portal
marcada
integral
Branca
jardim
professora
essencialmente
##ób
Anna
##viação
inteiramente
##hei
Coo
Fou
pan
##Super
latino
constitucional
##orreu
preen
confirma
produções
Pio
existir
declínio
##38
##ET
oto
##ômico
infin
Young
bancos
Barbosa
retirar
finalidade
##dura
##load
##ndro
Holanda
enca
mons
##cionar
Teix
Teve
ouvir
construções
##ben
oriu
ampli
gerou
castel
propôs
celebra
excelente
companhias
avô
##dente
estátua
mosteiro
Der
##teria
Numa
##unciou
moeda
organizar
gri
reman
##titudes
mister
mostrado
Ash
##keting
esportes
ligações
deputados
##tod
##icio
##trons
##gil
BBC
ced
Jaco
selo
Fantas
contraste
predomina
preocupação
1987
Vários
Nintendo
estradas
identificação
Law
Velho
poema
substituída
Si
háb
##issem
##ndiais
Hungria
nativos
banc
America
celular
digitais
companheiros
##ull
##seca
visando
medieval
eliminado
instalado
ocidentais
gira
##mirante
pilotos
Comunista
preparação
cong
diagn
colunas
##32
túm
filos
tempor
##formação
financia
gr
Vice
cobre
AM
comentários
##tares
dão
mesa
endere
considerando
##64
cil
cair
canh
naval
inform
##quistão
Giovan
escritas
patrimônio
##37
39
##garo
##ílica
Rafael
cardeal
abandonar
fortaleza
##Ja
1940
Kong
##ideram
contos
positiva
sar
Projeto
Colômbia
ancestra
Alice
gente
Garcia
transformar
##Não
tub
Execu
Açores
ventos
Democra
entrega
concessão
##gicos
bons
gene
oxig
urban
acerca
soluções
Microsoft
interação
##AL
##ux
Sy
leite
vírus
alimentação
referir
mecanismo
Bad
plena
cliente
licença
específicos
##izam
Rela
##culares
exílio
atender
camadas
candidatura
supostamente
##pou
##ógico
igno
corridas
Histórico
distintas
respondeu
##68
##dam
sofr
Terceira
conspira
mediante
indicação
##dice
Kid
abord
Pacífico
recepção
organismos
transmitido
##ipé
##upi
##órica
zero
PIB
êxito
envolvido
##AF
##athan
##jando
tese
agrícola
diversidade
##pping
Conf
Kenn
vent
esquema
virtude
laterais
claramente
opon
status
expressa
ambientes
##IT
##zu
##pus
Pit
Guin
Capela
constantemente
##-8
##dit
##fase
##portivo
coronel
Teixeira
##estas
Flore
liderada
narrativa
##ceae
relevo
sobreviventes
alar
acampa
destacou
Jac
##riano
cama
estabelecida
boca
permanecer
Anos
esto
gado
##damente
Capital
uniforme
confirmado
intelectual
##Tra
##trô
Líb
dram
Cardoso
identificar
##aros
ana
Hugo
útil
##érebro
poemas
ressal
Castela
reproduz
exposições
colonização
Kn
##tter
##úria
visu
Fried
aluno
previa
tribunal
acusações
seguidores
##ak
49
deixaram
parlamento
Up
perante
auxiliar
arcebispo
proteínas
##Fa
##órcio
Fred
News
Center
Harris
estimada
Cerca
deriva
apelido
contribuição
##cht
##ásio
Cuba
Elas
##plares
enfer
##água
pró
Cria
Gran
pont
espada
recusa
sofrer
colégio
Superman
##timos
cantou
perigo
##rido
XII
Mess
Viet
Henri
lidar
##DA
##mil
##ósitos
Miranda
UF
pên
Duas
género
Alexander
##féu
##inadas
intervalo
##47
##phy
Ye
Boy
##tagem
curva
front
Supremo
resolveu
corrupção
universal
Ital
hec
plu
##uração
jogando
mantido
alegando
concepção
Brian
automa
##talidade
abrange
##ines
##tric
Doug
Bruno
vivia
vivos
menina
rochas
aquisição
##íne
75
##ínia
garota
##tuna
##rível
iniciada
Venezuela
terrestre
interpretar
cale
enfra
##imarães
atribuído
equipamento
##lem
##turb
melo
mere
##çadas
chanc
derrub
interpretado
##ña
freqü
Infant
eleitores
quadrados
##CE
Rou
VIII
afro
amplo
Encont
acol
aero
alien
medal
goleiro
financeiro
##cade
Mus
jes
exemplares
Trata
sétimo
##enho
Kelly
aristo
limitado
probabilidade
Barros
campeã
ditadura
##TS
Ford
Life
respei
florestas
##olfo
##estro
Hero
##ulsion
comida
##Ho
compor
rendeu
##iguidade
esquerdo
perderam
Considera
##He
##ittle
Rose
tornado
1985
cristão
liderado
incidente
actividade
God
prev
degra
vidas
mandou
tornam
revisão
Universo
##die
fura
sabia
ópera
décima
Filosofia
##yon
Sony
Houve
Forças
encontraram
relacionado
##RO
##rás
cod
##campeão
##ralmente
dispers
##ring
XIV
suf
Simon
Patrim
online
cavalos
diâmetro
oportunidades
##gg
Flor
##ds
Livre
rigor
deixado
desloca
especialistas
especializada
dedica
Pictures
Prefeitura
42
Manoel
explicar
infantaria
65
arras
Helena
explosão
Guimarães
##nds
mim
doura
erros
jesuí
hosped
Fórmula
dirigir
##úva
##tração
canadense
cá
##orou
McC
Broad
Quanto
colega
holand
Campeões
Município
brilhante
##já
##moto
##íssimo
Macau
tribo
janelas
aprovado
eletrônica
Gib
Neg
estúdios
industria
modalidade
significativo
##ili
bud
##orreg
##versa
1982
##tivais
bacia
pensar
positivas
progresso
Lim
##portes
aventura
obrigado
Conferência
cirurgia
campeonatos
##aras
menino
palest
escolar
fotografia
CB
##pado
ler
Espanh
blocos
idioma
tecido
##100
##ors
SP
##lago
Num
cine
Jaime
monte
Samuel
Ox
##orth
longas
Palmeiras
##tegoria
disputada
cra
pesca
Albert
rurais
produtora
sentimentos
##ary
##hon
55
bíbl
##inheiros
respira
organizou
primeiramente
##ficação
Através
Madonna
parecia
conquistando
##67
mora
nobreza
simultaneamente
##-7
aço
etapas
chinesa
##idae
más
##mante
olho
decre
quarenta
dominante
raramente
Som
##óquio
cultiv
Península
executado
república
presidencial
##IV
##cass
170
raio
vermelha
##49
ax
##ensa
anel
enfa
chuva
criador
##ystem
Metal
espetáculo
talento
##ntese
mapa
Coroa
devol
Network
Cruzeiro
Província
rivalidade
Team
jamais
Bernard
esperado
escolhida
fabricação
##39
##plica
Código
escudo
placas
gráfico
passava
retirou
Domingos
ingressou
constantes
impossível
queim
reprodução
construídas
##ogle
pôde
emissoras
econômicas
##ró
Chart
Quatro
desafio
paisagem
juventude
Fon
Mate
##alizar
##tentes
bloque
##gregação
resulta
morreram
vendidas
conferência
formalmente
##MDB
##iclo
##alhães
exerceu
escolheu
descrever
nela
russos
Europeu
##gr
manc
Dessa
Lewis
##atórias
percurso
proprietários
gerar
desfil
auxílio
sobrinho
assassinado
##_5
##reo
hipo
austr
capita
encerrou
ofereceu
terminal
consideram
adolescente
relacionada
##RJ
47
merg
Filip
Ramos
conexão
utilizam
acreditam
##iveu
hou
##rechal
ocupado
Long
apropri
protestos
##very
##tical
##adoria
Diocese
acontecer
##vedo
Trin
haja
treze
relato
ranking
monumento
##chel
Pel
Batman
crença
espalh
extinta
##ícies
placa
abriga
colonos
privado
Operação
excess
variável
##hl
##rativo
round
Duarte
preocup
##vard
##ecida
##ânsito
cruza
estacion
Association
preservação
##vere
partid
estatuto
seguiram
##olor
Gene
habi
trase
médica
marinha
impressão
##Pe
##igi
ajus
##mentes
incentiv
surpresa
territorial
##62
Kan
aque
mano
citado
quartas
##ívia
##estar
##right
hiper
##istério
heróis
moedas
reputação
Id
Alb
baixos
ligeira
publica
parentes
numerosos
publicadas
﴾
﴿
envolvimento
##ólio
︰
﹐
﹑
﹔
﹕
﹝
﹞
﹣
ace
fér
##usias
Bell
duplo
##cipação
！
＂
＃
％
＆
（
）
＊
patente
，
－
．
／
Campinas
mercados
observação
repertório
apresentava
##ndy
Bl
Bis
Maior
matou
：
；
postos
600
Már
？
＠
##refas
inov
##gadores
##érpre
cortes
depend
［
＼
］
＿
vistos
viviam
｡
｢
｣
､
･
término
suicídio
##duação
negra
adição
comprou
intuito
mensagens
companheiro
lâ
Bota
Forte
Sampa
pares
perfil
inscrição
desenvolvidos
##sea
Ball
##nciais
##cadores
formaram
##veja
with
Barão
idênt
tecidos
incluída
##bla
##top
##icon
renas
dezenas
##Cam
##rela
banh
compreensão
##PG
64
Junior
chegam
Torneio
prejudic
Elizabeth
basicamente
##újo
##órgia
Kent
Plano
desas
incons
ruínas
precisão
previsto
evidência
monarquia
Fá
Li
Robin
acabar
indire
entrevistas
##dom
DNA
gin
Rita
ovos
altar
Boston
fundamentais
##âneas
rapa
Prata
harmon
monarca
propaganda
Nar
Mons
asas
exclu
lutou
##tilidade
sessões
distinção
primavera
bu
dúvida
visitou
##iterrâneo
Comércio
Mi
##idado
reag
sons
Integra
hectares
substituiu
descendente
rem
lembra
ortodo
líquido
Christian
laboratório
Your
##íferos
célula
cérebro
escreve
graduação
##çamb
##polis
##quita
euros
falha
Araújo
Ensino
herança
distante
Web
alcançando
escrevendo
##iba
##tista
##óxido
Petro
Tanto
Diretor
##Um
##ideo
...
meteor
físicas
ocupada
Abra
executar
##iko
Dy
Radio
cumprir
incluído
destinado
específica
##lock
##tent
Vis
##micos
1984
flex
correntes
critérios
aproximação
Nú
Sum
mam
##rense
##inaram
Felipe
reuniões
Tecnologia
sup
##renço
##trans
Open
tarefas
tocando
paciente
organismo
##cionalmente
Participou
introduzido
zo
##fego
hard
pura
Warner
graves
bombard
jornada
decorrer
conseguindo
##lico
anf
##ardins
cordas
Começou
disciplina
sentimento
##yu
Bay
##chefe
1983
Mana
Gales
argentino
##esses
##micas
câmera
complex
Americana
155
gosto
Pessoa
círculo
combater
provocou
plataformas
##Ha
fr
##eron
Atla
democ
Torres
calcul
##tenimento
financeiros
##fas
##paro
##íaca
ABC
##turno
Wall
Grammy
talentos
##gram
Apo
Toro
suple
adotou
estágio
observar
decoração
estrangeiro
Bispo
devas
compat
##ende
mód
pud
##mados
agro
frio
condado
Botafogo
essencial
##onha
dava
inex
##mentada
adicional
infraestrutura
Alta
tens
dizia
Nascido
cristal
##Para
##ieta
164
250
Lin
abor
Belas
Coronel
segmento
produzidas
ên
##ouros
##istentes
fechado
##sel
##ush
Guar
profe
extraord
##DS
##zzo
Rodo
sint
pedir
Frente
Pierre
torcedores
Confederação
##bon
efec
fruto
Contra
paixão
anúncio
Trabalho
quantidades
##cta
##lare
1979
Rang
vagas
específicas
nomeada
falecido
##27
Dol
Sic
ader
céle
repór
Magalhães
##US
Virgem
intermedi
benefícios
Ran
raios
conversa
##adi
sing
tenente
##idem
ber
##vidor
##quenta
exame
proto
roteir
Caetano
Tib
saud
define
Industrial
##AT
##olar
Oto
##resse
Milão
Roger
Veneza
argumento
determina
necessárias
##gaz
asi
##meira
reba
Marte
efetu
##85
##mac
But
longi
arquivo
cemitério
sociedades
trabalhava
Libertadores
planejamento
Exem
Face
##landesa
Dentro
Templo
parceiro
conhecimentos
##bama
1978
##Melhor
buscar
rebaix
procurar
conquistas
##New
Existe
obtido
descobertas
gradualmente
##34
##ttp
alo
aumentando
estabelece
interpreta
##cé
More
Conta
ênfase
parecem
reorgan
diagnóstico
perseguição
##mpa
##ule
##ibol
##tânea
Neto
obtendo
restauração
las
Foot
Xavi
sentir
##ole
dona
##tifica
Escri
Vista
junta
Atenas
enviar
visível
Mol
Sab
##órida
orna
torres
gigantes
relativa
ocorrência
##_4
trajetória
Aze
irregular
industriais
##ác
##ndra
Dil
bizantino
bor
pater
saque
serra
medica
intérpre
adolescentes
44
##Bras
##orno
mono
disto
tocou
##essamento
costumes
envolveu
gerações
democracia
Metropolitana
##ür
##tios
caç
Maia
israel
marcar
entusias
festivais
iluminação
##.<
##MI
##sal
##ski
Quar
chuvas
Cláudio
Sampaio
Lourenço
transferiu
##erado
Clara
marco
servindo
##nário
Cass
Google
porção
pergunta
implementação
##ulha
piso
combo
##inental
móveis
sozinho
combates
escultura
##urre
Bruce
##impí
Bag
Tudo
neto
Forma
reunir
defende
agrícolas
religiões
personalidades
##lé
52
Jam
templos
tentaram
terrenos
##ásia
caminhos
fracasso
atingindo
complexos
estivesse
Doc
UEFA
Getúlio
eclesiás
indígena
organiza
disputado
permanecendo
##agar
Good
IBGE
Russ
##itárias
longos
federais
semifinal
representada
1974
tric
##triarca
Coelho
braços
jurídica
aparições
quaisquer
Ak
Tais
dita
diário
diminuição
##árb
exil
Alfredo
crédito
dedicar
tornaria
Dos
Anima
aéreo
quiló
curtas
locomo
profissão
certificado
##pez
opções
cinemas
domínios
##Th
##nar
Alan
Davis
exercer
eletrônico
##ilhas
bomba
aliado
IS
##crânia
Class
conseguido
constituem
##cano
gaú
insu
##lamado
vitor
passos
representou
##entu
Irã
Hong
literária
##day
asce
fazê
mangá
perif
vilão
confor
meninas
enviados
península
secundário
proximidades
fi
eva
pne
barco
Margar
tortura
aprender
##Is
Vat
##eller
romances
europeias
projetado
##edy
##entre
##ranha
1964
Parana
variam
únicos
cálculo
##tividades
cantando
numerosas
Sky
##tasse
tráfego
observou
impulsion
cooperação
##UC
##war
##ídios
##ançado
esteja
Flórida
colônias
parlamentar
##tempo
1975
Lúcio
sentiu
##metragem
Anderson
##ette
158
sujeito
elaboração
Zé
##memb
##tindo
ensaios
mudaram
distintos
eficiente
passagens
eletrônicos
nam
##guarda
Agora
ramos
discíp
Wrestling
consequências
Ul
##órum
##iosos
##éculo
Caxias
Xavier
platina
confusão
mencionado
##PT
##gna
##anato
##gante
##nomia
Deputados
alimentar
continuam
##ndi
Sci
neo
##ensores
Geórgia
Moreira
computação
##rac
##suced
##critos
clipe
Legislativa
financiamento
bei
##fonia
idos
elogiou
evidente
##Bar
##avy
##Tube
Ryan
##ipélago
católico
intelectuais
cop
voos
##leibol
dizem
minas
marcha
Ucrânia
Giovanni
reservas
##Fo
##final
vidro
Justin
nossos
alteração
DJ
Ec
##cond
165
Ron
criaram
Monteiro
poderosa
completou
calendário
registrada
substâncias
compositores
regularmente
jazz
Dream
contínua
conversão
precipitação
vinho
linear
publicidade
##ASA
DE
##Hist
##qued
Bot
fel
Gard
denomina
moléculas
instruções
apresentador
desconhecido
##LA
##tum
roda
compare
configuração
##69
Agos
##cessor
Renato
##pher
reflex
testem
afirmam
colapso
sugeriu
gabinete
portuguesas
##ábio
debat
##uri
##ader
enz
extinto
direcção
complexidade
##énio
Mart
Matt
Povo
Virg
germ
Kevin
Semin
Philip
cabelo
tratados
##iff
##omé
Win
##reiras
##ulados
Camar
atingido
Orquestra
##pool
##gança
mental
compens
##alizações
chineses
convocado
##eto
##isti
##feiço
difund
fêmeas
Constru
Eleitoral
Ponta
##cidades
dispara
pobreza
medalhas
autorização
##wo
Bi
##ione
Alc
1969
##íssima
traços
humanas
consenso
pudessem
Mediterrâneo
##zan
Mir
##ígios
##gência
ricos
Public
positivo
objectivo
##vesse
##termin
Romana
garoto
inclusão
contribuições
##jes
##metro
Condado
reduzido
trazendo
declarado
Cór
##ógrafo
Conforme
divididos
permissão
800
Jane
##oney
##crição
oceano
##RS
##af
grá
##perou
morf
raiz
motiv
pênal
sinte
Floria
viajar
Marques
visitar
localidades
sobrevivência
Grêmio
despre
##iner
bura
rend
Chico
Circu
bispos
Madeira
disposição
homossexual
somb
recebem
##clo
##seus
##rasse
Gama
irre
milho
refugi
circular
paralelo
cientista
transmitir
contemporânea
##Sh
##ólica
Catal
datas
subiu
##restres
Azevedo
aprovada
acampamento
##élica
homo
amante
vistas
##mentando
ganharam
imediato
trânsito
componente
##arch
##usto
1976
cata
hosp
amist
sócio
Howard
diverg
Natural
havendo
segredo
vereador
##feras
machos
baixista
diminuir
regulares
##asta
##ulou
##icl
Bry
ora
##éreas
1920
Caso
Merc
bara
apoiou
ofensiva
##28
GP
##árqu
elec
Hamilton
estiveram
influenciado
##orema
##teros
Havia
premi
aparelho
cantores
separados
destacando
circunstâncias
##gária
##letos
##21
##pha
##tres
##iciou
fome
Jason
cópia
impul
Island
levada
adotado
condeco
aparente
Independência
Lé
oce
##fante
##izont
tirar
entretenimento
##irro
emit
fogue
##ramento
estende
indicam
enfrenta
opiniões
assegurar
aventuras
precisamente
##ísa
Jay
##órdia
pene
eficaz
perceb
##ervatório
localizados
##pero
secreta
pretendia
by
##cero
##dendo
romp
Difere
YouTube
causada
aplicada
arquitet
povoação
integrado
##'.
##zil
##iami
##vana
##rocos
Wolf
##ussões
priva
Oceano
seguro
multidão
primária
actualmente
Lula
Pedra
provin
Nicolau
interpretada
##ella
Nunes
Acredita
Concílio
##có
IX
Ear
subdiv
registrou
históricas
##wns
##cito
Cup
Karl
Maurício
Oh
Sk
##ness
##quin
Met
Nik
##ction
Pens
doce
gerencia
torneios
pertencentes
##33
##ndez
Tig
Serg
Assis
genética
reduzida
##boy
MP
auge
gole
Comer
Figuei
contas
domina
esfera
mundiais
NFL
pleno
avalia
Prússia
modernas
pression
pretende
experimental
classificados
Hay
Pér
dinâmica
precisam
turistas
anunciada
iniciaram
Alexandria
americanas
cães
Canção
Tóquio
fracass
continha
filósofo
Convenção
##quina
esclare
rotação
##hony
Mis
Rey
Dona
Fora
Marcel
físicos
instalada
##29
##?"
##ech
LP
Corr
cint
levam
reúne
Espera
hierar
##gráficas
Bragança
Columbia
Direitos
necessariamente
ocul
empreend
##lack
Book
##vantes
amarelo
sexuais
##volta
Vlad
inqu
falou
controla
interessante
##ede
##site
Bomb
gama
psico
ativos
##Categoria
privadas
introduziu
reconstrução
AC
Film
espo
reinos
crescer
##rindo
Stal
cauda
juris
Christo
matando
profundamente
##gente
Prem
Neves
gráficos
ordenado
ambientais
substância
Comunicação
Are
Hip
dra
##inense
concluída
enterrado
Socialista
Originalmente
##ied
##itri
##pical
Volta
abrig
seman
vasta
massas
informou
##bin
IP
##ancho
rode
Aragão
atendimento
##gat
##enha
##ndor
fiel
guarn
Meio
Hotel
encora
percorre
concluído
navegação
ibne
sétima
amostra
certeza
existiam
voltaram
Din
relóg
operar
ligadas
francesas
##pula
subter
cai
campon
Carioca
Fonseca
residentes
encerramento
ONU
trio
mecanismos
suí
##rinha
Bulgária
##play
Pare
autôno
sementes
cinquenta
funcionar
associações
fixa
sono
##istemas
eleita
feridos
colocando
favorável
##ugos
Arena
##ividade
perturb
destruído
registrado
##lau
##cópio
lava
Comple
atacou
pernas
emissão
concordou
soviético
Bio
##óricos
Count
condu
desfile
atribuída
jornalistas
quilómetros
estabeleceram
##urb
54
##tring
exam
umas
##teiros
Indús
peixe
divide
Gustavo
comanda
elétrons
judicial
1977
salão
##tidores
frutos
diocese
comunistas
ferramenta
Ari
Angel
usava
vincul
domingo
possuíam
##íso
ríg
clim
reen
judic
Aliança
civilização
determinação
##ipes
##creveu
##máticas
centrais
maneiras
aprendizagem
174
##tígio
espí
expuls
Douglas
gerando
convidada
mitologia
certamente
reconhecer
Out
Dark
Irmã
incl
Negra
##».
1000
Podem
##étricas
iguais
aceitação
concedido
apartamento
tipicamente
##">
##fi
##arde
##chen
Sher
Conte
Valent
verdad
emergência
##dal
##yle
##hist
##pton
1972
Ivan
ilegal
álcool
semestre
eficiência
##"(
##ser
##tten
Gia
roupa
Benjam
duplas
versos
convento
difíceis
integrou
especific
##trato
morar
promul
vermel
capturado
distribuídos
##36
##95
##tie
Bang
Contro
Olimpí
janela
Stephen
aprovou
Princesa
coloração
comunista
renovação
Manchester
semifinais
protestantes
##Don
##cros
##meno
##pura
Azul
##crimin
##duções
Moura
notic
áudio
##incluindo
rebelião
##iense
1973
caracte
continuação
##lyn
##grin
RTP
padro
lutador
apareceram
Beau
semin
Revista
frustra
artificial
empréstimo
##hem
za
##ción
##tigo
Fun
1967
Carn
polu
##izaram
alter
##%.
##Lu
Lam
mun
##parte
Russo
##ãe
Joan
##cionou
##ndrome
##inações
concedeu
proximidade
##agon
Várias
acentu
explicou
prestígio
produzindo
##ota
##wen
##mida
##itava
Cant
acons
Divers
alimento
capturar
gravidade
embaixador
continental
procedimento
##dico
olhar
Mulher
##çambique
enviada
procurou
UR
##nova
Ton
Cabral
perdas
repara
brancas
##__
##tón
Chefe
magia
alemãs
rivais
Coração
intenso
telefone
algoritmo
abandonado
embarcações
##-6
##zen
Home
fugiu
conseguem
##Pr
##istic
##seram
##âmbio
ades
fita
##éricos
deverá
explorar
Ná
##vile
##ordos
hero
##óticos
Mateus
garantiu
inspirada
inteligente
Jenn
##conhec
North
salto
Johnny
paróquia
indicações
determinados
##ock
##wski
teor
faria
submar
típico
destacar
considerava
##Per
##cks
##oito
157
Mid
##Geral
aglome
estabilidade
participando
##26
##cker
154
168
char
presa
Todavia
consigo
campeões
elétrico
##For
PR
Cem
metod
censura
parecer
adquirir
mercador
libertação
##98
##Ad
óp
##dito
##ndar
Vig
##trica
decidir
lançadas
liberais
arredores
artilheiro
##bour
##téis
Media
molec
vendida
geográfica
##cin
41
fon
##iscopal
aquelas
queriam
suspensão
restrições
cinematográfica
Ann
##biter
Vera
Group
elimin
perceber
teologia
empregados
observações
Constitucional
##vaí
##rosa
##rupa
Dor
Lic
##rence
Girl
Rese
capaci
Leonardo
esperava
caracteriza
financeiras
##tú
##guez
##ílios
bolsa
lucra
dívida
ferido
aplicado
Margarida
##My
##SC
##enz
##imir
Lau
Wol
Chann
Miami
desafia
destruída
estrelado
igualdade
resultante
controvérsia
Gord
arbit
paras
Toronto
econômicos
##nesto
##odoro
##general
disputas
contratos
##.”
##hop
Tai
##haram
1981
down
Renas
Miller
##rariamente
alcançado
precisava
tum
Raim
##ndidos
##ww
AR
##tias
legí
vib
Femin
gases
##istiram
##portiva
Freitas
internas
íd
##lins
cabel
induz
açúcar
urbanos
##Ele
##tsu
##irim
adver
madru
Andrew
básico
substa
pedindo
salário
##ncialmente
iniciando
##tona
Morte
cultivo
Gilberto
Pinheiro
##Lei
mau
##ónimo
Albu
Inácio
ascend
tendem
apoiado
consistia
fenômenos
Moçambique
ferroviária
Ok
##tuas
##mundo
Blue
Caio
bela
externo
soldado
Ocidente
Vaticano
montagem
jornalismo
compromisso
transformada
##23
##ey
##liv
Kal
##deias
Banda
Inver
Jovem
sonor
System
avenida
horizont
observado
Pom
##tavam
##ídeos
caver
sonda
Agência
publicar
interpretando
noção
Mineiro
armadas
##ets
assistir
destinada
ocasionalmente
##km
##Ins
Fonte
discre
miniss
médias
Munique
Mosteiro
##AD
##az
43
##cran
##isfa
Kra
santo
parcial
competir
frequentes
##ST
##conc
##caute
Elec
dina
Angra
ângulo
Digital
Gonçalo
afirmar
retirado
##gicas
Bond
actu
vivendo
memórias
Geralmente
especialista
investigações
ira
Batal
Mello
Sofia
##ficiente
Recebeu
Society
aperfeiço
interface
##meiro
perig
##querque
Kennedy
cavaleiros
transmitida
##AB
##MP
##Col
##head
cess
##tocolo
Antiga
##Can
##Raw
##gby
Cec
##rante
##raria
acabam
regente
Cavaleiro
diretoria
eliminação
búl
coz
##íngua
Sarah
arroz
atinge
pastor
Correia
internos
##ions
##ossa
Raul
##portos
Joana
areia
honor
vital
Charlie
Ernesto
baseadas
créditos
primário
prostitu
assumindo
explicação
favoráveis
apresentados
efetivamente
manifestação
46
Tol
##messa
soviéticos
fotografias
classificada
##log
bro
reme
touch
reperc
vencido
sensação
Britânica
Testamento
##eigh
Luc
Sat
##rária
plas
Diogo
firme
protó
ideais
Gregório
Seminário
imigração
restaurante
publicamente
##osh
##rang
167
##ranos
bril
concei
legado
adversários
##UN
##dil
##tema
bot
sér
vêm
##turou
Vers
aquilo
núcleos
promoveu
##ppe
Você
pecu
march
peito
supre
Antigo
básica
sacrif
reações
justific
##jog
Jud
Sid
rin
##áquia
##estino
Little
utilizou
##campeonato
associadas
Haw
ara
bits
##charel
catedral
pessoalmente
##ED
##onde
##reza
Abu
##house
##tilha
habil
armada
Oficial
filmado
tivessem
automóveis
defensores
vencedores
Corporation
##remos
Pequ
mans
##ântica
Sérvia
entrando
mundialmente
provenientes
##pper
##imens
acident
oxigênio
Xu
##breu
##ledo
judaica
perigos
vizinho
##Cas
##mad
##www
Ino
##lasse
##uário
Hart
invo
viva
estou
sites
##venções
Física
outono
índices
conquistado
##zia
##tream
adulto
Mariana
estável
jardins
planetas
ministros
conto
simpa
viram
Colônia
encontravam
Cr
##rina
model
polit
viúva
relata
resgate
retrato
Executivo
Â
##thy
Pai
acús
##título
Guiné
acompanhar
ministério
ligeiramente
##ío
Diz
##estado
Velha
tomando
derrotas
negativa
apresentadora
##IP
##!
##gri
Igua
Lite
Well
Xbox
##ificam
seguem
Naquele
Ribeirão
referida
repórter
comparado
##uer
Rui
Quad
##bridge
Sound
capit
aponta
atrair
fantasia
mamíferos
Bandeirantes
permaneceram
Event
mínima
Arquite
dispens
filosóf
análises
permitia
compreende
contemporâneos
##nã
##ob
AP
##garam
Apol
Humb
##heiros
Apple
humil
pátio
##quistas
jurídico
bizantinos
realizando
Cí
isola
dentes
potências
facilidade
arquipélago
##sou
130
santu
coopera
mármore
licencia
sepultado
processamento
##cante
1968
##grafos
desma
receita
Política
CN
##dina
##ôlei
Naz
ida
pac
rou
##hores
##onial
Dead
Marx
aflu
aten
##ciente
Noite
depos
fiéis
metais
crenças
proporção
residências
Arn
##olares
Brook
aspira
átomos
Amazônia
profundo
telespec
modificações
armazenamento
##fan
##bais
##lene
##égios
lege
baseia
chefes
treinar
concluir
apresentaram
##ijo
##teto
Hil
Dave
name
Casou
cobri
ans
##agner
Coma
care
##ground
acord
legais
preced
costume
adequado
sacerdote
vestígios
demonstrou
##cana
Manaus
casada
imagin
montanh
alterado
formados
polêmica
abastecimento
##EP
th
Alago
vesti
esculturas
##ON
##kan
Lí
##fato
admi
irri
##tórias
beira
privil
Twitter
assalto
cuidado
afirmação
premiação
reconheceu
pis
##itude
Dick
flor
genes
##integra
Matriz
carvão
doutorado
vencedora
##yoffs
Billy
Fábio
Comando
tanques
semelhança
##Sal
##mack
Mog
##gonha
Evan
Brand
escoc
Campeão
idiomas
preparar
procedimentos
##tice
1971
Arist
Feira
acion
encen
##ásticas
motiva
designar
Regimento
soberania
transferida
##mm
##ibal
Lady
Junto
segura
assinar
chamando
lutadores
desenvolveram
Line
ause
neve
Light
velhos
causado
Circuito
responder
##eler
##mail
pic
##quias
##vares
##worth
Brad
legi
Economia
arquitec
Afe
cão
##ntadas
Girls
chegado
dinamar
percepção
##97
##Du
##Ver
##off
##ônus
1958
Free
iriam
válidos
latitude
Britânico
́
##idou
##iseu
Rap
Rat
visitas
contratou
concorrentes
85
##usos
##vira
##wick
Ará
are
game
prom
vulc
Tomás
virou
##ctérias
desigu
Channel
Sudeste
diálogo
radical
governante
Ker
Bros
maca
##rision
##ássico
Diário
falhas
imposto
escritora
segmentos
representações
##|
##gara
##iley
##nação
cita
Piauí
presti
Somente
aldeias
elabora
estatal
Cristina
##bach
delim
provar
sentença
##governador
nucleares
Edi
##tiona
Card
prolon
tentam
regresso
Mik
Squ
##ndiam
Rous
ampl
largo
modos
recolh
falando
marketing
##»,
##ift
##nts
##ísio
##tizar
##aranja
persa
##timento
síntese
vestido
Football
atrações
responde
diretores
indicando
Democrático
##sky
SS
##órios
Huma
trag
Jacob
Bolívia
leitores
vingança
##ipo
Marquês
desconhecida
##rock
153
Tit
Power
Salão
Sever
altern
beneficia
##lon
##ptos
Aga
##jados
devia
inves
rodas
vende
triste
esperar
Finlândia
Liberdade
acadêmicos
adolescência
Bara
lazer
video
turcos
satisfa
criticou
##lis
##negro
Bowl
afund
fortuna
controlo
fazendas
reeleito
derrotando
caracterizado
##guar
1966
Acad
ícon
##tolome
solid
##escentes
gigante
temática
liderados
emancipação
##lávia
Carmo
painéis
rumores
eliminar
bl
tax
##media
1962
Hans
##toriais
teatral
Florença
elevação
madrugada
##och
Às
##vial
##êmea
##tipos
##viera
Visco
##nópolis
autora
##idamente
Técnico
absoluta
satélites
Mei
##mânia
Frei
otim
Video
vozes
Vietnã
oitavo
oposto
pesado
sucedeu
voltado
celebração
possibilidades
Meta
achou
acção
culpa
bibliote
derivado
Friedrich
dezesseis
empregado
realizaram
performances
##cir
##econ
##rell
Cru
##ibera
Port
##letismo
doente
alieníg
complic
separado
derrotados
inferiores
##EN
Pires
estabelecendo
##pirou
Jimmy
norue
praias
preval
estreita
matérias
proposto
comerciantes
metropolitana
##inux
##turos
1945
deusa
Jordan
cilind
respostas
compilação
confrontos
##si
##ère
eru
London
brasão
magist
melhoria
bilheteria
científicas
Pay
árb
Thor
pale
##ingham
Allen
libras
tomado
Álvaro
Marrocos
cana
excep
pinto
compôs
##orregião
postura
##elizmente
sustenta
ampliação
localizadas
##wart
Fire
matr
##úrbios
Luísa
Graças
descan
obtidos
Pesquisa
terrestres
Albuquerque
comunicações
##row
Lud
Off
vér
##antar
catá
inib
pano
##mentam
Marie
antrop
cargas
parado
típica
Agostinho
procurando
##fone
##ipse
700
##dutor
Lord
abra
##ngular
revis
turco
Borges
fábricas
premiado
##ávio
teto
##brindo
cotid
aceito
túmulo
deserto
sucedida
trabalhado
##iler
##tários
deser
ganho
pecul
Newton
relevante
repressão
hidrogênio
sú
##assa
##ólico
pago
vamp
Junta
Moore
enquad
58
##úrio
##madas
Fede
Afric
venez
rejeita
estrelou
químicos
##78
##nga
ób
##iles
##view
avó
##entro
Rico
esma
trav
##vidade
ossos
cidadão
extensa
fechada
prédios
sugerem
adequada
Presidência
##roqu
159
NBA
##menda
##vilha
Parte
bloqu
Ortodo
oitava
Silveira
científicos
distribuído
supervision
Ay
##tyle
agir
##entais
Songs
Bizant
mestres
indicada
transtor
africanos
esportivo
monumentos
##dan
##ourt
##town
##arial
##cador
1965
adoção
##bury
##icóp
Todo
emitiu
ouvido
##idiocese
##pecu
##Tunes
1961
acas
##gazine
Baviera
Jacques
tomaram
virtual
Carnaval
variados
fragmentos
##time
##concel
##ândalo
Prémio
disfar
ritual
Patrick
Geografia
frequente
sobreviver
desenvolvidas
##ilv
##tol
##ciada
adja
##fônica
arcos
##ilândia
agricul
incluíam
propriamente
##31
##ab
##ixon
##teca
##anche
Kara
Marsh
Under
encarreg
Filipinas
##cen
##mant
##rupo
Tam
planeja
cerâmica
gravadas
psicologia
conselheiro
contratação
##Mu
##cus
tiros
ensaio
incapaz
regressou
soviética
britânicas
##You
##guia
166
divor
Cristó
##Americana
caridade
cenários
minerais
Juventude
divulgado
investigar
Faz
pole
##étrico
Dance
cartão
lesões
voltando
cavaleiro
##êa
##icular
agrem
portos
acadêmico
vantagens
mercadorias
##jão
##ello
##irão
mig
##antes
##pensa
Grão
arru
tomb
visa
##ligação
Princip
##iversidade
ensinamentos
transformado
##gie
Fir
Mau
Mod
fres
Laura
hebra
remix
##inidade
##nterior
Russell
Comunidade
definitiva
dependência
##riana
##ésimo
Road
Major
visuais
desencade
##sch
##gnos
Eva
dign
Beach
Estrela
ciclone
célebre
percent
esconder
pioneiro
instrução
melhorias
discussões
minissérie
##Lis
##kar
cí
##iller
Serv
Album
nutri
Grandes
máscara
trechos
demissão
servidor
coletânea
permitido
trabalham
exportação
entendimento
temporariamente
##fri
##urch
##estres
optou
famosas
alfabeto
actividades
##lay
geom
hino
Brito
Dilma
curios
únicas
avançou
sediada
Vasconcel
facilitar
popularmente
transmissões
##ports
solos
confia
queima
aconsel
privile
oponente
prevista
##sk
##neto
Geor
##gráficos
literário
roteirista
encarregado
medicamentos
administrador
Tenn
marg
Muito
mapas
coleta
elegeu
superar
##comunicações
naturalmente
##hoje
Estat
Maomé
milag
popul
Século
exempl
virada
excesso
download
reconhece
compreender
##Hz
##ML
punk
idéia
polar
férias
provid
rodovia
tropicais
##embl
##rola
169
##trong
laços
anuais
doação
juntaram
assassino
caracteres
transformando
##/1
Cab
##cionada
Steven
painel
Beatles
Inverno
maestro
revelar
voltada
##Americano
##graduação
##hard
East
Games
Navar
assinal
adaptado
ajudando
sofreram
múltiplas
156
Eri
Down
NASA
desp
Guana
##ometria
compõem
interfer
mexicana
Patrimônio
sequências
tendências
##Cl
##pr
##tana
##peras
irão
##onésia
##teiras
Lagoa
domic
trens
Medalha
Relações
##incol
bebê
justi
##iverpool
garante
teorema
Benjamin
ocupando
aparelhos
separadas
totalidade
estrangeiras
##adju
##bile
Cacho
Estuda
minuto
Anthony
chamava
capitais
entregar
acreditar
adquirido
##íz
##ezas
ges
##indic
##ulhos
ater
cass
oral
##missão
Bened
pseud
Otomano
coletiva
##ologicamente
governamentais
##wig
Kh
1963
tribun
comentar
percebeu
78
Leite
Viana
Quinta
dispõe
abertos
estátuas
homônimo
restring
magnético
restaurantes
##Down
##feld
##urão
Got
Sei
##ergia
jeito
nasce
Tornou
barcos
pistas
decidido
falantes
traduzido
Mr
##prin
cór
Qual
escu
Festa
Maced
cheia
##terapia
Batalhão
Leopoldo
colaborou
mostraram
experimentos
##gni
##ange
##citos
Anne
##ndidas
fazend
##elamento
##ganistão
levados
Paquistão
Atu
Land
diri
marx
Sacra
Terri
vinda
mantida
noruegu
escravidão
lançamentos
##igan
125
Sex
Nico
River
##urreição
acusação
soberano
emprestado
oferecendo
Lux
Roy
##peram
##ustão
Magn
Story
concorda
escritórios
##All
##dir
Câ
##reak
##rimo
##romo
Nam
Nig
cheio
fraco
critica
debates
indicar
influente
inscrições
##arre
Gonz
Lind
##mburgo
South
notur
radic
Clubes
Pontif
desped
##prefeito
abertas
cozinha
gerente
muralhas
aristocra
hierarquia
selecionado
dé
##ftwa
Tes
##senal
Aqui
Arch
Bush
##ecidos
elogia
iTunes
imobil
ascendência
identificado
universitário
Fur
Gaú
Gor
tru
Aber
Mala
flan
empur
engra
ficado
protesto
compostas
influentes
##eng
##fol
##iet
##sub
ST
Zu
Log
##jadas
choque
descul
##landeses
insetos
romanas
demitido
entregou
definidos
Afeganistão
##ESP
HD
##ciou
Guad
Orle
mini
##ilação
Barry
juízes
coberta
vizinha
concreto
convidou
funcionário
uru
##brica
fotó
Agric
pesco
##guesias
Sicília
agregado
Superliga
Trabalhadores
administrativo
Op
##Nova
Alemão
Amaral
Inglês
correr
devida
novelas
preench
entradas
estética
marcados
promessa
proteína
##>"
##fede
##gress
Cord
Hous
Fundo
rapaz
rotas
soube
Corrêa
##indicato
racional
vegetais
oferecido
##iânia
##ésima
duma
tabel
Iniciou
complexa
justifica
contemporâneo
##IM
##Ant
##attle
##licos
##tadora
Maxim
##ilvânia
Unidade
quentes
salários
sequestra
determinadas
##Rei
##iden
##tuba
mix
##inton
##istro
Donald
andares
furacão
servidores
##IL
MG
##rida
ecl
Hamb
Josh
acertou
suspeita
manuscritos
colh
##eriais
##guerra
estud
preta
##ionário
helicóp
aprendeu
inovação
singular
Infantaria
variedades
Ato
##doras
Andy
##erente
Carey
Jerry
Paral
abund
aéreas
contêm
estabil
Raimundo
ferrovia
inspirou
linhagem
##tificações
respectivos
Yo
##foro
##tics
Bem
Mada
Series
sítios
válida
acordos
Interior
daqueles
parceiros
relevantes
comemoração
##EM
##há
##copa
maç
vac
##piter
Cinco
Curso
Magno
rocha
coletivo
mexicano
expressões
##elle
##vich
##vina
Mit
Apos
Russa
energ
##âmetros
provoca
improvis
previsão
##partamentos
lentamente
##Pri
##vey
nou
##iosas
Gaga
guia
maci
mistas
nativa
atacado
perfeito
##irl
##viv
53
##cham
##vino
unir
##iciano
bombas
escuro
lutando
mudando
africana
namorada
vendendo
##itariamente
secundária
##nu
##qual
Maca
##enciou
armad
sangu
subir
Flávio
Gordon
agrade
datada
listas
demonstrar
##DC
##atisf
Mass
Beira
Edgar
##atórios
Nasceu
dezoito
fósseis
impulso
perfeita
Americano
##66
Cá
149
pir
##ditos
seco
##iterói
repar
Morris
surgir
remonta
contagem
pecuária
cub
rib
fras
iran
##ógicas
auxil
engan
mandatos
produzem
biografia
convenção
permanecem
##–1
jú
sor
##tizou
Best
##tagens
desfa
cripto
##plicação
equipas
contínuo
intercep
##tropolitano
acompanhada
repercussão
##:"
Sig
Água
Polit
alegou
surgem
aplicar
Liverpool
confirmada
aposentadoria
##DT
Ál
##coss
Pho
##isório
facul
gastos
Facebook
Martinho
##OC
Bit
##arani
##ógicos
Motor
obede
##istindo
Lincol
implic
oração
Ibérica
jesuítas
Christopher
consideração
telespectadores
##Men
##arão
##çois
140
171
ame
ine
lad
Ára
##logos
exige
Galiza
básicos
Floresta
espectro
vizinhas
##illy
##mido
URSS
verso
##formula
inicio
avanços
lembrar
nocaute
prefere
Comercial
socialista
##umi
Syd
fus
Hugh
Jess
Zero
##Lisboa
Guara
Prote
Peters
lançando
criaturas
sobreviveu
56
##riqu
Gin
enx
##adrez
##poles
##íduos
missa
vindos
aviação
desmemb
bactérias
automaticamente
##sado
Dog
##range
Abreu
María
Press
galáx
greve
expandir
hospitais
intérprete
##ósio
Arg
nume
reque
vilas
##singles
##ulantes
nazista
desafios
Palestina
criticado
##Go
##rent
##show
Dean
grão
imun
membra
record
severa
reivind
negativo
republicano
##sol
Bei
enf
##gento
gale
##alizou
envel
##ashi
##ênis
##médio
##thers
Post
Disco
##dicação
Milton
monges
pescoço
possuindo
substituto
deslocamento
##Uma
gel
Nenh
lote
post
espont
pronto
##inamente
Jur
pisc
Esquad
holandês
##americanas
comandada
longitude
aquecimento
concorrência
instrumental
##gma
##oura
Reb
2019
Nobel
Tocant
paralis
parques
tráfico
classifica
encontrando
51
##magn
172
cosm
curi
opos
Ficou
embri
atraiu
##fir
##lino
##mpos
162
merid
editado
começado
garantia
preservar
brevemente
participado
registrados
transportes
##neu
##asco
##asso
##isma
##licismo
adulta
pesada
ameaças
proeminente
caracterizada
##eu
##atre
Pet
##orror
##ânime
Mega
##tícias
briga
demas
noites
instalou
mantiveram
##iceu
Lus
##magem
neer
englo
negou
parou
módulo
saindo
Geraldo
Humanos
Musical
clínica
Victoria
absoluto
arranjos
peregrin
diferenci
múltiplos
rendimento
Ré
##phia
Fei
Oce
That
luxo
pian
##inários
Alfred
Pequim
fundar
dúvidas
relatou
renuncia
colocadas
concedida
##uch
##caba
Dun
Nem
gor
pin
##rágio
esla
hola
redo
Morro
emble
estím
agências
basquete
equações
acidentes
orientais
Congregação
##hin
##nio
reb
Soro
Walt
Oxford
##American
Figueiredo
##Ph
##vant
Kle
mudado
futuros
perdida
namorado
ci
##ezes
##lues
medi
##Brasil
Passa
abuso
bateu
pacote
conduta
infecção
renunciou
##pta
IN
Ri
##ísta
chá
##setts
##âmico
Cher
Conn
##cência
##terano
Moraes
Perman
grávida
Vermelha
nomeados
condicion
justamente
matemático
01
pi
Ans
senso
suave
celebr
buscando
ancestral
cidadania
desempenhou
remanescentes
mansão
conselhos
jurisdição
convencional
##ao
##ights
##nascido
Investi
remoção
rituais
director
estágios
plástico
proibição
linguagens
literalmente
modernização
##ama
##cci
##nha
57
fã
Kei
Pie
Week
metrô
##tolomeu
fiscal
Espanhola
Ár
163
Pin
XXI
raro
virtu
juntas
##chusetts
##lováquia
ocorrida
negociação
Cry
End
fio
Muse
ofic
##ciados
##nterna
Deste
bônus
Freire
jogado
Nápoles
cabelos
tomadas
escolhidos
qualidades
legislativo
##Via
##nea
152
autó
cach
acomo
depor
encam
sueco
agrupa
Rosário
bebidas
##vine
Eug
arrem
fauna
defensor
exclusivo
sobrenome
determinou
##nteriormente
##fs
Wit
##álise
Chin
Resta
grade
empresários
expectativa
##nou
##Love
##melo
Bia
Lil
dil
##ology
Vinc
ocor
##trizes
agreg
ética
##ilância
entram
museus
destinados
frequentou
##só
Ló
##ilhos
Blan
Fale
Lobo
vola
Crime
milhas
incluídos
##],
##pá
##ount
##Jornal
mover
Singles
##tolicismo
Cristóvão
atravessa
governantes
##frey
Das
Mãe
Sie
ajudá
cuidar
padres
##oriamente
cerebral
derivada
masculina
Democrática
##CP
##SE
##mund
clã
Chal
Whit
##metria
penal
##tivismo
servem
difusão
quebrou
##ericórdia
privados
mineração
##IG
##Ger
##éias
151
lua
oste
estarem
Américas
variante
vereadores
estratégias
demonstração
significativas
Gala
redu
barro
codice
estiver
tensões
analisar
extração
acadêmica
discrimin
esportiva
essenciais
fabricante
consumidores
##DN
##ité
##ymp
VH
sel
enga
Rousse
Wagner
quartel
marciais
Institute
liberação
capacidades
modalidades
ess
##queiro
salvo
##elamente
Magazine
Indonésia
##éns
##utas
Ath
Lang
Publ
##ndessa
##vilhão
Largo
sonhos
épocas
Aliados
Liberal
normais
depósitos
acrescentou
##Ju
##Cal
##anna
##pada
Tito
pavi
Wayne
Basílica
acompanhou
falecimento
##gol
##ízo
Mü
Lem
Abel
pasto
Austin
epidem
sequer
Equador
coberto
referem
urbanas
Representa
futebolista
##ídeo
##íamos
Mack
dano
Orlando
estimado
mantinha
encontros
esperando
##Min
##teia
Wind
tabu
anglo
sagrou
##izadores
antagon
Indústria
dependente
iniciativas
Reich
falsa
##ângulos
verdes
pedidos
prolong
preferência
##uis
##iang
##plan
Guy
tia
##cerca
##tinga
Shin
Perry
##ásticos
violão
Armadas
Galeria
efetivo
aprision
antecessor
rup
##ênios
Reno
##icional
Prince
computa
playoffs
poderosos
alternativo
##UF
##ravo
Ted
PMDB
cabeças
Convento
deficiência
educacional
Bri
##úrgica
Artur
Great
Ultra
metro
latina
Lincoln
abrindo
Clemente
desastre
Bizantino
ideologia
velocidades
colaboradores
##oshi
Boe
Ação
Java
ucran
avaliar
Carneiro
derivados
suficientes
voluntários
apresentadas
NBC
Riv
asa
##guaia
##ltimo
Nome
Loren
Novos
Porta
folha
Johann
obtida
riscos
santos
##Il
##non
SE
##inam
aviso
penas
Latino
expulso
juvenil
menciona
separada
decorrência
Emil
##queira
Instru
cúpula
quadra
Tavares
mortais
vegetal
##ntamentos
coleções
corredor
discutir
verificar
##fl
Ví
Ade
1959
exag
Infer
sábado
Camargo
Houston
adotada
alegria
básicas
melhora
academia
requisitos
desenvolvendo
##tch
Lt
vá
##esis
##ather
1944
Apro
sério
câmeras
amostras
quadrado
palestras
perguntas
##tex
##bell
##urus
Rud
Âng
##maras
##thing
##tomia
##ícula
Cris
aula
Educa
marav
Virgin
exames
quebrar
membrana
controlada
retornando
Massachusetts
##uk
##Pres
##pria
Rho
ínt
Faria
Marga
gravid
equilib
resolve
secreto
argumentos
isolamento
##BR
##vre
AL
##teau
##pesas
##íticas
##ômicas
Advent
avançar
Franklin
conserva
ativamente
centímetros
##Ge
##tuma
Deu
##ássio
sapa
Linux
Academ
Sempre
Indiana
Localiza
divulgou
##Fe
##Des
##ocra
Wel
Pena
Psic
bale
chef
razo
evacu
Vladimir
benefício
definidas
Normalmente
Recentemente
##uns
##anga
##mart
##quel
CBS
Vivo
feira
tende
##íncipes
Bairro
cirurg
confec
corrig
Júpiter
##idelidade
santuário
declarações
consecutivas
##We
##xi
##Pol
##ato
##garos
Mars
Isaac
Evangelho
Tocantins
emocional
pertencem
exigências
engenheiros
amo
Pear
Tara
grama
terço
##essenta
Morgan
propõe
Reforma
bombarde
diretora
encomend
Nascimento
atualidade
missionários
##CI
##Cor
##dad
88
Bud
Boys
graf
http
ilus
Bella
noiva
Andrea
usavam
conting
benefici
inespera
formações
militantes
diariamente
jogabilidade
protagonistas
##oler
Aur
##mínio
inje
##tensão
##ulando
consoa
interc
planejado
sacerdotes
acreditavam
conspiração
estabelecidos
77
Tá
##Cons
##tolo
coe
Obras
Harvard
adiante
ligando
envolver
externas
migração
recebida
relatado
##San
68
##arias
##yoncé
gent
##manuel
bicam
intim
Procura
associa
castelh
vertical
previamente
##amá
##gun
##guá
##alos
Ian
Juiz
baía
Naval
cland
embal
melodia
arrecada
cadeiras
continuava
espetáculos
##Gen
##umbi
##lamou
Glen
tons
##espéci
divina
prémio
Armênia
Luciano
algodão
galeria
sofrendo
executada
abundância
Republicano
##BI
##cc
fl
##eixo
173
##tocol
adotar
chances
reflete
tributo
mestrado
divididas
paisagens
pioneiros
pesquisador
OS
##ifer
##rick
assal
perna
Évora
Glória
falado
refrão
seções
senhores
Olimpíadas
extremidade
##heira
saga
agrup
aprimo
bebida
Goiânia
haveria
sofrido
afastado
magnitude
Agricultura
atualização
##Mas
##anim
##hire
Bec
##trico
Buck
amaz
Golfo
pegar
triunfo
elevadas
endereço
##turn
Stad
##árbara
clero
Labora
pesados
Exposição
guerreiros
##_7
##inf
110
Xuxa
##iental
##ndador
Solar
##tiveram
Arábia
Passou
adesão
campus
##mackDown
##ntimento
Domingo
alterar
nervoso
relógio
Broadway
adquirida
convencer
reivindic
##rod
##sur
Fé
##omem
Baby
afet
Tinha
terão
argumenta
camponeses
parlamentares
##gate
Gam
##kespe
##vância
móvel
Beatriz
Benfica
Beyoncé
protocolo
parâmetros
terminaram
departamentos
Dur
##param
##tinha
1954
Baía
##embora
prece
elogios
Serviços
Presbiter
##arm
Ax
ép
##ndel
##Santa
##minas
##ícias
Bona
Lisa
Autor
##ileiros
junção
Faleceu
Ortodoxa
Virgínia
despesas
forçando
avaliações
##xes
##cete
pão
play
insul
Cardeal
Guanabara
defendendo
coordenação
##ah
##avam
##item
Eis
Sax
pux
##prego
Hora
##viária
Algar
lagos
telas
hostil
##imamente
impediu
converteu
Literatura
competência
##ESCO
##enne
##ntil
Cip
Eti
etn
revo
Cidad
conve
dieta
pouso
atmosf
saíram
enormes
promove
receitas
Cemitério
coligação
alternativas
Hul
##teram
##verso
##ócios
Nich
Timb
lixo
Child
afres
fraca
##issário
convers
correta
meninos
##hecimento
Olímpico
carácter
romântico
##dicionalmente
aparecimento
Pé
Soc
vass
##ctores
##minais
febre
cresce
Trindade
contribuir
refugiados
##éus
##util
##írem
Who
tún
##Black
Iugos
Sydney
pontes
tanque
instituto
Vasconcelos
acontecimento
##alu
##ibi
SC
##fere
Wer
1947
Arts
tamb
Retor
homic
intra
notar
leitor
válido
Moderna
diagnos
nazistas
elaborado
integrada
ocorrendo
sofrimento
##orf
Wy
##cing
Viv
##intra
1946
reve
##íticos
Prima
ecoss
viola
incomp
Turismo
recuperou
coordenadas
estratégica
##meu
##zio
95
##peza
Pale
fixo
lida
orto
esper
Morreu
##cionados
definiu
separar
económica
aplicativos
fornecimento
##yama
pôs
sho
##mberg
Matthe
##ixamento
animado
sabendo
Coutinho
acabaria
envolvem
harmonia
estrutural
##bí
##coa
Fle
Mace
##jornal
canhões
dividir
nascida
Seguindo
Shopping
cineasta
mi
##pers
161
ATP
Mam
Row
##lotte
1939
maus
leves
lucro
migra
preco
Church
abrigar
acelera
ensinar
Estatística
organizados
##Am
59
##algu
##ócio
dum
hit
1936
Obama
judeu
Chaves
Wright
hábito
poetas
Estudou
unânime
atacaram
Cambridge
variantes
correspondência
##ée
Lon
Teoria
tantos
piratas
tabelas
obrigados
##Que
##fam
00
##bina
##espe
##guer
Chel
Hein
Grant
Space
cativ
Barreto
devoção
conduziu
levantar
renúncia
criminosos
contribuíram
##LC
##ót
##trar
##grado
Seis
Cient
##estação
Stalin
invadiu
ocasion
critério
Televisão
dirigentes
dissolução
introduzida
respectivas
##vic
UK
##émon
Cabe
depo
##contra
presas
morrido
reforço
concentra
desapareceu
proveniente
especializados
##ady
##ffe
##íbr
Bil
Mys
Sla
##cismo
##meral
Pant
calc
##quedos
retro
tronco
Niterói
defesas
peculiar
sanguíne
disciplinas
operacionais
qualificação
AB
##idiu
##lara
##ópia
##icana
Moon
Petr
inoc
confi
##embléia
costumam
divulgar
gravidez
oferecem
conteúdos
abandonada
relevância
consecutivos
Ah
##caso
##tata
##ttan
Amy
Grav
Alemã
Tiago
usaram
gráfica
prestar
sustent
expandiu
provocar
comandado
mortalidade
estadunidenses
##voa
##zel
##nado
Gul
1941
##icácia
Heart
##emburgo
Castil
##ternidade
Nogueira
elevados
estranho
variadas
definitivo
identifica
##dd
##Los
CR
Plu
##História
laranja
inéditas
revolucionário
##Cha
Sea
júri
traição
Hamburgo
obtenção
originou
sofistic
executados
##íbal
Ral
Kate
Sabe
State
alvos
detém
memor
##unciado
Spears
##44
##_6
##pio
##onso
cig
##ridge
##verde
Joel
rein
flora
raças
jantar
assassin
predomin
químicas
retratos
assemelha
espaciais
continuamente
representados
foz
##quilo
Otto
fibras
querer
autobio
bloqueio
envolvidas
##xu
##sim
##mata
Moz
##shire
fêmea
Taiwan
doutor
tratava
trilhas
imediata
insatisf
controlado
influenciou
##idu
##agan
##dici
##ômicos
Prado
Ramal
amador
gerado
Atlanta
preconc
radicais
câ
fict
voar
Diana
falam
infil
rapper
expulsão
obstante
tragédia
protótipo
totalizando
##bb
##Casa
##anes
1955
rosa
inspe
##adência
farmac
cartões
descont
enfraqu
comandou
generais
pianista
sessenta
preparado
##gui
##hara
##ilão
##ingen
Chip
Fair
rebo
grava
lendas
Alagoas
Menezes
gostava
favorito
assembleia
garantindo
preocupações
##Ser
##mod
##zaga
202
Data
##indade
chapa
minim
sacra
vasto
colina
armados
garotas
Mulheres
senadores
turístico
conservador
reestrutura
mís
##entou
##riado
Cond
aler
esbo
tria
##áutica
dadas
exper
abstra
limita
químico
Australia
negativas
periódico
representava
Florianópolis
##Bu
##201
##One
##vić
##trói
##íodo
foge
Teste
delic
espess
frutas
Fernanda
disseram
terminado
levantamento
historicamente
##].
##Rol
##dias
##helm
##trio
Giu
tij
##caria
funeral
puderam
surpreendente
##ism
DO
có
##Oeste
1942
Hell
caro
ódio
##edoria
##zentos
menção
quartos
abandono
Atlântica
bibliotecas
permanência
##mag
Ces
Crí
Caribe
dívidas
estamos
lealdade
pintores
bandeiras
bizantina
utilidade
estabelecidas
Eus
Hog
##lados
##trina
Saud
Slam
Tupi
##ólicas
##úngaro
apura
graça
armado
preven
Armando
designada
governamental
##íno
nó
##olina
##élico
from
nono
aonde
despo
vasos
##qüência
Gestão
efectu
prorro
Naquela
divórcio
houvesse
revelação
adicionado
##gl
##ilas
Aud
1957
##inossa
lento
sabor
##licações
ficaria
Teologia
liberado
escândalo
intenções
##BO
##élix
##chete
Boca
Fogo
puro
##inador
monta
polin
trigo
atuava
impedi
##anhattan
##kespeare
neutral
retrata
reuniram
envolvida
##42
##Cap
##ize
##xia
##zeta
Pok
##émica
##ónico
Ving
Antio
nesses
subterr
orgânica
sintetiz
síndrome
##96
##ecos
Mix
##tícia
##úrbio
belo
Douro
Aníbal
abrigo
perfei
prestes
reclama
formadas
forçados
agremiação
compositora
comportamentos
##CD
##haw
PP
Lav
Sor
##ónias
Bank
Jour
sinc
##rativos
falecer
libertar
traseira
voleibol
permitiram
eletricidade
administrativas
##Bra
##dez
Tag
##essee
1948
1953
Shel
endo
reed
##itania
medir
franco
persas
Sociais
cristãs
muralha
atuações
essência
conferências
classificadas
acompanhamento
##NG
##hol
##gata
##lace
##wald
Jin
Sonic
citar
cobra
espos
tenho
buraco
distor
padron
Theatre
citados
monstro
Montreal
Paróquia
dissemin
identificados
##emo
##índ
##haus
##ieri
##thor
##ésio
Clo
neur
pend
##herine
##itanic
bicic
imens
##teranos
Fátima
deslig
Augusta
efetiva
forçada
guardas
##ficiência
fundaram
mostrava
seleções
concebido
guarnição
##eli
##Comp
Ire
ave
Monu
##turgia
alinh
##ventura
Boeing
Silvio
sócios
marcante
negociar
distantes
fechamento
promocional
reconhecidos
##isi
##espa
##etas
##rino
1956
Estê
Figh
mara
##icasse
##umínio
Relig
dobra
Carter
secção
treino
doações
hábitos
árbitro
##icionário
oficinas
referindo
povoamento
##PP
##UR
##_8
##cole
##ilho
Ple
##deais
##unham
Bela
rema
tubo
vínc
Square
adeptos
incomum
andamento
operários
LG
Pó
nad
1910
Nice
desn
Regina
Toledo
fechou
manual
sólido
escravo
François
proibido
patriarca
compartilh
executivos
cumprimento
desaparecimento
87
sá
vs
##less
##hecos
Hisp
Parker
Estêvão
falência
seguidos
restaurar
##sei
##ichi
##rash
##arejo
##checo
##iness
##tível
Brux
Khan
indis
micros
Fantasy
Ribeira
operador
##TO
##iev
set
Matem
Novas
##piranga
Dragon
caindo
escura
exibir
Bárbara
Exemplos
avançado
distâncias
perfeitamente
##illo
##inde
orb
##fatos
Dion
##óricas
France
estejam
Memorial
desconte
Arcebispo
circuitos
complexas
receptores
estimativas
##Har
Pais
##ranças
##mentadas
Croácia
dominar
Marshall
decadência
freguesias
fabricantes
homossexuais
##má
##áus
##ardi
##cões
##passa
fisc
##arense
agrad
grãos
tirou
Chegou
Marina
Genebra
amarela
relativo
98
fan
##pente
Cres
Trav
##errado
##oriano
##querda
Sacro
Vegas
notou
Impera
Potter
exista
sombra
##centista
Stanley
decisivo
destruiu
sentidos
organizadas
##Ac
##–0
##heim
##vila
##class
1938
Alma
file
híbr
polo
brilho
Romênia
Independente
##cla
ov
##guaio
Fall
##nciado
Menor
corda
ringue
cunhado
pesadas
eficácia
projeção
diagnostic
documentação
interpretações
Dé
##brem
Jen
##Enter
##ioces
Spen
alco
##instein
Língua
UNESCO
datado
praças
poderão
formatos
rodovias
venceram
prevenção
projetada
imperatriz
##esel
##gers
adop
##inaldo
Estima
mergul
sultão
sozinha
Jonathan
avançada
Francesco
terminais
embarcação
rebaixamento
Mec
geo
Mina
Nuno
bord
Folha
##mandade
Iguaçu
delibera
massacre
guitarras
prestação
##ats
##nti
gé
##eceu
##indu
148
Ras
1933
Nilo
obri
Metro
antic
audit
direc
catálogo
pênaltis
suportar
Comandante
Ful
esf
ileg
casca
chile
##ariedade
dialeto
Espacial
Lawrence
Sporting
denuncia
enfrentaram
##99
lac
##trôno
##íacos
votou
##isfério
comitê
idéias
prazer
##produção
Rogério
Marechal
estreito
expedições
Shakespeare
##ño
##pad
##bros
##andro
1952
Davi
Hend
Félix
apelo
nuvens
reabil
Antioquia
conquistaram
67
##rive
Bál
Hei
Hud
Nós
##ursão
Bapt
Soul
matá
##versão
ergue
Visconde
marginal
doméstico
necessita
gerenciamento
##mácia
##ricos
Tomé
abel
fisi
outor
arranjo
suposto
Tailândia
reeleição
consumidor
denominações
##cica
##fort
##tite
##ving
ous
Esco
densa
Global
dirige
prelim
Profiss
emoções
batizado
Catalunha
desenhada
paulistas
republicanos
##MC
##hip
je
test
Lorde
cruel
##inárias
Ronald
variar
competiu
Manhattan
descritos
exclusiva
##zza
##blin
gros
##quelas
##óticas
della
intes
Empres
##ificaram
aproximar
elétricos
privilegi
participam
Gö
##alth
ane
nic
##ciosa
##enhos
##ienta
Franz
defendia
manuscrito
sensibilidade
Sc
##fico
Abd
Nag
##tones
imor
##mantes
forem
aborto
citada
Continu
Estreou
Apresent
encerrar
Charlotte
crescendo
criadores
editorial
Luxemburgo
Ki
##unar
128
##maria
##mendo
1934
Área
Promo
decisiva
empregos
olímpica
anarquistas
Universitário
66
##taru
##tier
Gau
##critic
Impre
Kings
Mendon
repris
dividiu
umidade
instalar
expressar
felicidade
expectativas
##55
By
##irmã
##ncar
##ídias
Cine
Over
Fórum
Larry
Líbia
Quase
luzes
toque
arranc
provou
debaixo
limpeza
Dinastia
governou
passaria
praticar
Participa
classificar
##IR
##Dra
##voz
##mers
##ogen
##ough
Mois
##mânico
inund
testa
Experi
Murray
Troféu
errado
servia
Gonzaga
Ambiente
Caminhos
hardware
Iugoslávia
escavações
descobriram
proeminentes
conservadores
##Ed
RA
##hava
##ouri
##rett
Rica
falso
persu
Química
Tenente
ajudaram
colecion
revelando
distinguir
prioridade
##IO
EC
Fama
Maci
##atorze
Matos
enven
incer
cromos
exigiu
mandado
sobrena
visíveis
referente
brinquedos
capturados
australiano
interessado
subsequente
##Pal
MS
##lada
Assu
Bach
Bene
Gale
Pers
##uladas
estri
Master
Projec
impede
radial
xadrez
##ográfico
Coorden
deterio
equipado
temporal
culinária
relatórios
distribuídas
##péu
##idra
##nett
Liz
Mand
mira
sagrado
apontado
criatura
FA
Ky
##eder
##tsal
têx
##cotes
Fria
Quem
Sent
##etário
Filme
cinza
cover
matri
ciclos
votado
calcular
escultor
reflexão
##vavelmente
femininas
cruzamento
##kai
##sor
##bria
Bós
Tos
##teral
Ohio
Desse
belga
reina
escapa
conduzir
desespera
proporções
estrangeira
##Dia
##Liv
cog
##atros
Líbano
atraso
plural
troféu
Sergipe
assentos
causados
Tennessee
holandeses
Petersburgo
##ople
Dir
nona
pega
##ópicos
incre
votar
Pompeu
Adriano
mineral
parciais
Arquidiocese
##Mor
##burn
##icks
##kura
##toon
cân
##ifício
Graça
dubla
estro
alcança
pilares
Mendonça
aclamado
amistoso
comandos
acessível
herdeiros
primitiva
limitações
predominante
Ey
##lian
Cia
los
irra
Bobby
Roose
despe
naves
permiti
terapia
externos
ingressos
comentário
administrado
##And
##lah
##lez
72
86
##crist
Beck
Gent
ofer
relu
Ambas
Celso
Pablo
resum
sedia
despro
semanal
contacto
infantis
invenção
poluição
molecular
aparecendo
provocando
interferência
##Vo
##rix
Ub
##norma
Comb
Onde
Sere
uniu
##Grande
Eddie
detri
punição
barreira
geometria
partidários
nacionalidade
Fab
##prima
##onaldo
Griff
Johan
Design
Legião
chaves
divisa
advento
mineiro
Assunção
atitudes
desistiu
reduzindo
##VA
##ally
##vete
Had
Ocu
##clear
##ensis
##ônima
Berk
Deix
afec
Compos
##peridade
Academy
entregues
livremente
##gé
##Pra
##furt
115
ape
##lagem
Cena
tape
Samba
##rativas
Igrejas
confess
agropecu
Democrata
descobertos
assassinatos
##hai
##led
##óide
Chi
Chu
USP
aná
##cadou
##issor
Mans
gato
roch
##tistas
Terry
raiva
##idimens
querem
turnês
console
remodel
comprado
corporal
enfraque
Television
discípulos
interações
supervisão
protestante
politicamente
transformações
##TE
Py
##pler
##iquia
##valdo
Jogo
Meso
##cerias
Queen
vazio
Gaspar
Golden
Montes
cobrir
imensa
pratos
antecip
arrecad
condução
planície
realizam
Esperança
Presbiteriana
##tique
##ículo
1943
Kane
fing
icon
##tólica
mercen
reconcil
hipóteses
derrotaram
provincial
descrevendo
agricultores
##DP
##cur
##ías
63
##ller
##úgio
Pós
##terno
Arms
Lapa
couro
monge
prevê
Oliver
imóvel
mensal
Caminho
Harrison
alterada
destaques
artísticas
comerciante
estatísticas
##inn
1951
incon
lenta
Cooper
##volution
afastar
egípcios
impresso
##tibilidade
profundas
adaptações
complementar
desenvolvedores
NH
##agen
##maco
##pina
147
##ódigos
mista
papal
raras
sigla
Classe
desfru
visões
##alizados
subsidi
Freguesia
dramática
inaugurou
recompensa
vigilância
##até
##igg
99
##here
145
Llo
evo
1929
1937
Thia
axio
ambic
Diante
Morais
Rachel
Stewart
térmica
nasceram
transportar
##rion
##velt
pôr
vés
##cesse
##clore
##óides
1918
Gary
reda
##enberg
Canto
Flash
ouviu
Cortes
Nathan
circul
dragão
fluido
nessas
roubar
coragem
reprodu
evitando
planalto
resíduos
lucrativos
sacrifício
catolicismo
concorrente
##fão
74
DS
##pora
##ucky
##corre
##itivo
##jaram
##seppe
##teles
Dura
Lege
Nash
ruim
López
Termin
senado
biologia
##Sou
##ery
##ieu
##yan
##dicos
Denn
##izador
Baixa
Mitch
alusão
ilumin
##tropical
guerril
teórico
Mesquita
círculos
reforços
cativeiro
##vá
84
##bios
##gawa
Spo
##conte
##mpson
arca
##terial
##ónicas
Stand
##ionária
Moisés
##mentados
Ferrari
adaptar
traçado
##olerância
exibidos
questiona
Montenegro
milímetros
##ör
900
Sib
gla
náu
Pros
fria
sets
Congo
Macedo
lucros
decidem
comparada
descritas
disponibilidade
##xy
##neo
##umbo
##énia
Hem
Tun
arg
fle
nin
##cific
Shak
muros
turma
seguia
Seattle
animada
escocês
mentais
precoce
rebelde
dialetos
Transportes
consolidação
##heu
##sin
tá
##campe
##tolos
1900
Habs
Ingles
frases
hotéis
atribui
telhado
tesouro
mistério
tribunais
presidentes
##come
CON
##teres
Arra
buro
czar
repel
congre
sentia
inédito
manobra
apaixonado
corredores
estimativa
testamento
semelhanças
AN
##tory
tóx
##itiva
##ácios
duro
fatal
troço
Mérito
escasse
retrans
absorção
delegação
motorista
recomenda
exercícios
referentes
##diu
##nger
Old
##chave
1914
Fant
Pico
back
##etária
daria
firma
folcl
garra
grand
máxim
perio
pirâm
suspe
##ciência
##máticos
fechar
trocar
##ligência
mísseis
Imprensa
estariam
empreende
partícula
recebidos
recompens
acontecendo
contribuindo
substituídos
##Ter
##oko
##mpor
pau
##menos
1919
prós
Compu
##ionista
Caldas
Leonor
navais
cadeias
futuras
derrubar
violenta
automobil
japonesas
príncipes
aplicativo
reportagem
assentamento
##dle
##itá
##pam
MC
##dist
##írio
Alf
1935
Kirk
rara
Bryan
##ássaros
eleger
refrig
remover
declarada
rebaixado
casamentos
capitalismo
##EA
##mus
##buna
105
##âncio
1922
1932
ench
mina
ricas
úteis
Brothers
discursos
invasores
##BN
08
Ts
Sad
##anhou
Edge
Fase
Canad
Dallas
Panamá
levava
Rangers
estimul
oitavas
fortific
parecido
Cachoeira
económico
##continental
mencionada
sonoridade
testemunhas
especializado
##zzi
##iral
##reta
##tian
iam
imper
Darwin
instant
arrecadou
atribuição
##sias
Tat
táx
##anger
Dele
Ever
Shar
cito
Liceu
Malta
pegou
golpes
Índias
comboio
inflação
ocidente
contrapar
acidentalmente
76
IG
##tilo
Zen
##Final
Alfa
cora
##leiros
##âmicas
gener
perpe
pesos
terap
deixam
estará
Arsenal
Suprema
almirante
intervalos
fur
1912
Eram
Bourb
azuis
borra
hered
##tocolmo
Graham
barras
encant
Etiópia
apontam
Cristiano
automóvel
inovações
edificação
instalados
património
patrocínio
suficientemente
##ÃO
##cun
##ulu
##zig
69
##pido
##troit
Islâ
Util
##duzido
Penal
Phill
Cristã
absolu
apaixona
Capitania
incluídas
romântica
Juntamente
imperadores
##fro
##nik
1°
##íria
McK
##branc
##heiro
Adams
achar
anéis
ofício
Herbert
Ronaldo
redação
combinado
anunciaram
permanentes
prosperidade
##GB
##eso
##Você
##base
abu
##ciana
Dani
Luke
eleg
##gramas
Mauro
blues
pisto
desgas
Campanha
comandar
molécula
sindical
celulares
destacado
domésticos
faculdades
##itt
##orks
##ritm
##ódia
##issas
1917
desag
donos
ligas
Claude
resgat
trazia
explora
Bruxelas
substant
zagueiro
converter
ferroviário
##py
##Ale
##aux
##jin
SA
##eley
##guna
Cama
Tira
exci
lema
peru
Palma
Castel
Rubens
Formação
alumínio
entrevist
experimento
##tê
##had
##deon
##umas
Bez
1949
micr
##lamada
insti
##princip
Membro
desenh
facção
nossas
existiu
levaria
medição
respeita
bastidores
promovendo
Constituinte
proporcional
##mez
##ols
##elar
##mago
##émios
Emma
abób
Praga
vetor
Sports
nestes
ordena
Polónia
combina
desejos
registo
Giuseppe
disposto
estendeu
assistido
geografia
##resp
leu
##rinos
Emmy
Know
erig
Filad
equiv
senão
cortar
Wilhelm
convida
liderar
Assembléia
Actualmente
suprimentos
##cleo
nór
##burgh
##vamos
##nidade
Param
Resol
coral
neocl
vendo
##jogador
orbita
diminui
recebia
empregada
medievais
##DF
##En
##%
62
##udal
##prise
##édias
Iron
Remo
mape
##oriana
Galile
desvio
##vidência
Infante
habitat
parcela
volante
finanças
filósofos
funcionou
comunicado
superfícies
certificação
##OP
##bou
##cis
##ppen
##umba
IBM
##adequ
gême
pola
Amaro
Evans
cláus
ligar
antece
mundos
vingar
audição
explíci
rodadas
Negócios
consulta
receptor
regência
assinaram
espessura
regressar
pensamentos
##rano
##teve
Nan
##contro
##mestre
Japon
palcos
vogais
Roosevelt
agraciado
embaixada
unificação
##pic
04
##kers
Kla
Pré
lum
##bulos
Back
Tiju
caos
fant
##cabana
##icismo
Armas
plant
raros
acusou
agenda
nascer
Chelsea
imóveis
Notícias
aprofund
espalhou
monstros
veterano
Macedônia
fidelidade
predadores
influenciada
##Tem
##rier
360
Wei
##cript
##izava
Cola
##alizão
##cessão
ester
perdo
##ilidade
atende
califa
forçou
Índice
doentes
incorre
ruptura
teclado
conjunta
diminuiu
aumentado
obtiveram
Portugueses
sobreviveram
Syl
rot
##idada
##tuário
Susan
Alessa
Produc
autent
subida
Teodoro
crônica
exposto
obrigou
secular
suposta
típicas
hebraico
argentina
comemorar
habitação
perguntou
comercialização
Nat
PSDB
##restle
Astro
Atriz
Funda
macho
Rodovia
foguete
inédita
solares
descobrem
referendo
concentrar
ferimentos
usualmente
Pam
lus
tig
Agro
vales
mortal
vinham
##ificador
British
##formações
concorrer
##uno
96
Eur
Gun
Kon
##centa
1928
##guitar
##ículos
Peixo
Stark
Techn
dinam
Energia
armadura
culminou
ancestrais
tripulantes
##vê
##Che
##iato
PSD
##itenta
Brigada
Rolling
típicos
Thompson
distinta
repetida
selvagem
solicitou
brilhantes
incidência
descendência
##tamb
##távio
Hanna
calib
regul
destro
jogada
##ográfica
Cândido
Revolta
afiliada
marechal
oriundos
obrigação
Metacritic
prisioneiro
manifestantes
##Ang
89
ós
##adio
##ales
##etti
##ívio
Bart
voca
##bourne
Arque
Dragão
alerta
polonês
protege
africano
bacharel
forneceu
recordes
Esquadrão
constituindo
movimentação
##Her
##uke
05
##chin
##lite
Vaz
Wes
##tebra
##ópico
Redo
fina
mosa
muro
##óteles
rejeitou
espíritos
Informação
arquitecto
61
Mah
Ves
##étricos
Quinto
Thiago
Ultima
dinossa
##mentações
encaminh
imperiais
inquérito
destinadas
estatística
correspondentes
##Ap
##bão
##mid
##rául
##sche
##tenc
len
##ançou
##fones
##utela
Esca
Mong
Sing
Wild
Censo
motoc
desvia
Algarve
ensinou
compacto
Pontifícia
socialismo
convencionais
##On
##TI
##att
02
##enes
##usci
##ciona
almo
Babil
Vitor
reple
Aberto
Jersey
Studio
colomb
regrav
sediado
cruzados
governar
nascente
terrível
voltaria
congresso
dignidade
constituir
modificado
##band
##nell
CIA
lav
##anema
##neros
##rosão
##élfia
Oper
Reun
This
##iários
##linois
blind
ídolo
Albums
achava
exerce
pseudo
vilões
Guerras
Peixoto
pernambu
conseguia
costumava
primárias
denominados
##pse
Wik
you
##rículo
Gália
obtém
Abaixo
Summer
idosos
anfitri
desativ
pedaços
Prefeito
inserido
complicações
##41
##tah
Vik
##crita
##downs
##rendo
Last
bate
fenó
##oriais
Antár
datam
##ndation
Cícero
Direção
astrôno
dominado
sujeitos
Estocolmo
inclinação
laboratórios
##ön
Hi
##dont
##enix
Kub
Cata
Rain
Tejo
doou
Baixo
banho
dueto
heter
subje
Tomato
autênt
gerada
Reserva
fugiram
resistir
seguidas
divindade
Revolucion
misterioso
pertenciam
consistente
construíram
modificação
trabalharam
##HF
##sul
##wich
Key
##moder
##penha
##vável
Fort
Scar
meus
Death
Salom
cogni
dedos
comuna
ampliar
orbital
quantia
Illinois
desejava
trilogia
negativos
nacionalista
impressionante
##/9
Tou
cis
ond
##rital
1924
Advo
leão
##inhões
Danny
congel
morais
Science
montado
paradig
Humberto
atentado
contatos
olímpico
Pesquisas
esquadrão
encerrando
especifica
horizontal
continentes
significativos
##Tur
##çal
Pás
##deira
##vente
##viano
Fight
Swift
invic
tetra
Missão
alinha
falada
frontal
Feminino
Manchete
declarar
escassez
praticado
relativos
declarando
espanholas
largamente
significava
verdadeiros
##GS
##Res
##rish
##witz
Sas
##campo
Quint
Vôlei
assus
##roquial
racial
##tamentos
silêncio
doméstica
gramática
Pensilvânia
diferencial
instabilidade
empreendimento
relacionamentos
##MB
##cuo
##mpe
Gi
##rego
##Maria
##penso
Gian
Sean
exata
leito
##cionista
Noroeste
acabando
preserva
sobrinha
variando
Santuário
celebrado
testemunho
Aristóteles
produtividade
##canã
##ncos
##ocas
Wii
##light
##ordem
##sendo
1931
mede
Rugby
##química
Acordo
Jennifer
dependem
fictício
invasões
resgatar
sugestão
subsequentes
revolucionários
##Lou
##edro
##itsu
##vico
Lig
##ivado
##lines
Faro
Adolf
duelo
##Institu
Alonso
Concer
chamam
diária
revest
ritmos
julgado
todavia
antepass
atletismo
contribui
divulgada
instância
pronuncia
relativas
subespéci
superando
gravemente
finalização
intervenções
arqueológicos
##ager
##icil
##chevi
##gredi
Cana
Queb
ares
inev
Olymp
petro
prede
horror
Terceiro
estranha
exemplar
gravaram
arquitetos
pseudônimo
legislatura
interessados
##77
Od
##lând
118
Gan
Joy
fuz
jun
##estou
cano
tari
Desco
Singa
##Rolling
deposto
orgulho
comunica
interrom
narrador
quatorze
austríaco
federação
convertido
##FS
##edes
Daí
hop
##çaram
1890
Note
Amade
castan
Premier
desapro
facções
patrono
atribuiu
quântica
creditado
Matemática
argumentou
interiores
aprendizado
Infelizmente
##Sha
##tag
##nodo
##árze
did
ego
1926
Jazz
Like
Mino
Rail
##entecos
Apollo
Médici
tocava
ditador
metabol
Michigan
logotipo
rejeição
atributos
triângulo
linguística
privilégios
correspondem
##tha
##zim
om
##Asso
##údio
Asa
##urado
mane
feste
##central
curtos
montar
Aurélio
marquês
travess
Colorado
estádios
carreiras
atravessar
equivalentes
##Mad
##afric
##douro
##riota
Kurt
Lenn
cadá
mala
usos
flutu
hegem
sódio
tênis
usina
Barbara
circula
indiano
tentava
filmagem
investir
selvagens
contratada
consequente
sucessivamente
##tit
CC
##alte
##jara
##lice
##obra
##tuto
##weet
Isl
eco
##cedes
##ornia
Goul
acho
seio
##ticais
Intel
prato
Ópera
Martín
Paraíso
Spencer
câmaras
gravita
##adjuvante
Research
incrível
prometeu
violento
promovida
##nse
##Cont
##dian
138
nit
Indo
abal
sile
válv
Andro
Lagos
barroco
oficina
Públicas
removido
candidata
convenceu
##ximadamente
desenvolvem
fortificação
##mic
##bulo
##chan
##ísia
##ísse
ign
Sard
trig
Dylan
Heavy
Lloyd
bares
mando
##cultura
Ludwig
Marcus
gaúcho
gótico
delegado
partindo
rendição
sensível
vermelhas
alcançaram
incorporado
governadores
especialização
##Ka
##WC
##cif
Ni
##saro
Has
Beth
eixos
repri
notada
sólida
Detroit
Sorocaba
fictícia
revoltas
teatrais
australiana
possibilita
##sequentemente
participante
atro
##elagem
Minho
parto
Amazon
Santar
Stadium
cercado
correto
escrava
Deputado
exigindo
cerimónia
positivos
pescadores
testemunha
antiguidade
discriminação
##/8
##Mag
##ncla
Pris
Vere
Zeus
Caixa
Comba
Tommy
decep
Semana
extras
render
vulner
Saudita
salient
##conhecido
borracha
eventual
violação
fotógrafo
trabalhador
fortificações
##CH
##nis
##sil
aç
##vias
##enhor
1500
Town
Roque
repou
verbo
correu
ácidos
Campbell
Italiana
Tomatoes
habitual
comunicar
Filadélfia
aproveitou
marinheiros
##jano
Now
Ota
boxe
##inente
##veland
Bayer
Extra
lavou
retal
casais
tocada
Clinton
códigos
protegido
atribuídos
presidenciais
##nst
##ugu
##ario
Ney
Ola
pio
##mônio
##ílico
Clau
liqu
tupi
##íquias
Laure
ginas
mitos
##olítico
Juvent
##cionismo
Bourbon
reforçar
abundante
navegador
Legislativo
demonstrado
##pis
Ós
##juda
Tau
Vie
Gall
desl
##rizona
##écnica
batida
##ologista
cortado
setenta
correndo
mantidos
matricul
capitania
dedicados
definições
Renascimento
significando
característico
##Let
##ures
pás
##iando
Just
Lara
Lion
Tere
##ódromo
Georg
Homer
Total
compõe
testar
acabado
casaram
passeio
sertane
Maracanã
Planalto
depósito
Apresenta
regimento
Cavaleiros
introduzir
obrigatório
##Fu
##cê
##óia
##etta
Pul
##Music
##erias
##résci
Lake
Sabo
##viário
Fland
arena
bruto
Adolfo
apontou
luminos
refúgio
cobrança
marítima
otomanos
residente
Antiguidade
##Big
##amba
##emia
##fora
##pent
cau
frá
##Porto
##alena
Jere
expo
imin
##ciosas
##estern
escad
Nikola
empree
manufa
pensou
##ediência
espelho
formais
Margaret
pressões
dezessete
parcerias
aproveitar
restabelec
##cionalização
Misericórdia
Eventualmente
##jan
##tira
eléc
seda
Dante
decol
tinta
bilhão
nativo
Carlota
Goulart
Nigéria
invadir
materno
##ficientes
arremess
cálculos
apelidado
secundários
##GA
##Tri
##Como
Ria
Saxe
saem
espar
glând
admitiu
extingu
senhora
cartagin
distinto
dispostos
planícies
Imperatriz
centenário
sucessivas
abertamente
arquitectura
##equ
CA
##mena
135
Hat
Arro
Wars
mach
orel
Honor
Union
tuber
##Titanic
Gaúcho
Knight
Lorena
caixas
crânio
comedia
extenso
Benedito
defendem
sustentar
empresarial
##care
##imon
##ties
Apa
Ord
##erada
##quara
##round
##isebol
Milan
barão
nariz
##ocidade
Family
Histor
Malásia
carrega
interag
étnicos
##indicatos
Santarém
celebrar
levantou
subdivid
dominação
Foundation
estruturais
##eds
##peia
Lex
##cules
1911
Chan
Fame
bala
levá
##presso
Adela
túnel
Chipre
Weekly
confis
electr
falhou
profer
tantas
oitenta
cancelado
observada
Psicologia
##SD
##bot
##ils
09
##ffer
lobo
Lista
Marta
socio
Turner
Francês
Wrestle
conclui
separou
acusados
assumido
pássaros
pertencer
condenados
##GO
##Wh
Yan
Doro
dali
pagos
Crista
mantêm
Colombo
ressusci
sugerido
episcopal
ressaltar
##At
Fitz
orqu
##nautas
Lacer
##futebol
Rotten
Walker
enzima
ganhos
nestas
educado
ingredi
elaborar
validade
consultor
conquistada
distribuída
incorporada
nacionalistas
##ym
##Mul
##ová
73
##ancy
##cabe
##cioc
Dev
Fos
bos
rid
Gara
vita
##ndesas
##rassem
Creta
tumul
##zamento
Queiro
batismo
citando
indicou
reality
teatros
editores
expulsos
gratuito
dedicação
comandantes
##ird
##irit
350
##valor
Gray
sabo
sino
##crates
anjos
enfim
taxon
##formance
Brandão
legenda
materna
adaptada
gravados
curiosidade
aproveitando
estacionamento
##gá
CM
vou
##deiro
##olini
Ante
Garc
apag
barba
encaix
herdou
Leandro
egípcio
escalada
resultar
artefatos
distúrbios
resultaram
sustentável
celebridades
82
##euro
Deve
pato
##visível
buscou
voltas
Matthew
inadequ
isolada
minoria
pacotes
Encontra
conforto
gasolina
morrendo
invadiram
mobilidade
retornaram
continuando
territoriais
##adel
##pate
##quez
Flu
Bere
vara
Elias
Extre
Linda
Roman
Water
corro
pneus
Alente
Declara
Lorenzo
batidas
animados
islâmica
Ambiental
Paramount
Primavera
caminhões
muçulmana
destruídos
recorrente
urbanização
sobrevivente
permanentemente
##fias
##vier
Berg
neta
##óquias
Cente
Córdo
manto
monop
baiano
táticas
Terminal
habitada
Henriques
libertado
##diversidade
Sacramento
homenageado
##Bat
##gae
##mbar
Situ
With
##Cidade
##idalgo
atuam
colec
Museum
Voltou
aposta
encabe
sofrem
##alizadas
##dinâmica
isolado
suprema
inteiros
Trabalhou
algoritmos
espalhados
televisiva
progressivo
##cat
##eim
##cera
##game
##gono
##mbal
##quím
Pur
inj
ton
##eight
fara
harm
hier
moto
tour
##gantes
##írculo
Rober
Conhec
Urbano
aliada
litros
mandar
provis
empates
violino
prestigi
adicionar
demasiado
artesanato
condenação
transferir
intimamente
##Reg
IC
Wu
##Time
##ecas
##tólia
Hand
##grande
desar
##brasile
emoção
##quetebol
entende
manchas
reapare
sincron
tratada
##aneamente
protegida
periódicos
empréstimos
fisicamente
corretamente
investidores
aproveitamento
##Ab
##XT
##kyo
##yne
81
##pice
##âmia
##ízos
Int
epí
##idora
Nota
Vent
moça
##arquia
##ntismo
##ântara
mídias
Nicolas
conform
climáticas
excelência
coordenador
freqüentemente
##Ass
97
Kel
Neo
##óquei
Anas
Cook
Gand
Lyon
Rond
Drake
Sales
##venidas
pressu
sofria
cerveja
espalha
jurados
Mercedes
potenciais
Trabalhista
enfrentando
reconquista
incorporação
secretamente
##PM
##ogia
Asi
Ern
Paço
Ruth
##Quando
Excel
Haiti
Plane
encos
pasta
Márcio
vizinh
apoiada
emitido
evoluiu
legiões
recorda
retomou
cinturão
reunindo
Bonaparte
ginástica
degradação
observando
concordaram
administrativos
##teo
SN
##cruz
##ways
##irmão
arra
catar
roubo
##puseram
auxilia
caverna
contabil
farmacêu
desembarque
contrapartida
##IF
Meu
RPG
##iária
##ursor
Bour
Litu
Simp
##gridade
##ráticas
Kansas
balada
convic
dormir
paisag
presum
primos
sorteio
retomada
##Presidente
comunismo
criminoso
desenhado
distancia
motivação
Continental
##OM
##WA
Hus
ovo
##duras
##ustry
##usões
##ênico
Haro
##quando
Lúcia
Timor
feiti
Dennis
canhão
monito
Técnica
estender
prevenir
Alexandra
acontecido
##UL
##ceas
##duto
##lora
##reau
Kas
##mouth
##muito
##zerba
1923
Ator
Lane
Stri
nord
##tambul
quint
sever
Fernão
Irmãos
Rodolfo
comarca
##aneamento
denúncia
dublagem
estudado
desconfia
Bartolomeu
convenções
79
##What
Ada
##Franc
Neil
avós
inden
##turação
Arnold
mágico
obriga
Arizona
Marinho
trailer
Gabinete
Istambul
Robinson
Rousseff
detecção
esquadra
cotidiano
renomeado
##43
##riar
FBI
Pru
lan
##ulsão
Dados
Frequ
amino
##iadores
Vanessa
batendo
destinos
músculos
guerreiro
incentivo
procissão
combatentes
confirmação
diplomáticas
##46
##PI
##bru
##dif
##fec
##lave
Lie
Run
##asser
##iclop
1913
Kiss
Nele
canc
tole
##ássica
Elisa
Temer
remun
##tizados
##zerbaij
Acadêm
Fronte
Plínio
Sancho
cabine
tração
Salazar
evangel
Madalena
biológica
registradas
administrada
dependências
Anteriormente
##rd
##foi
##irá
##lee
##Este
##sede
Moss
Punk
Roth
chuv
##ócitos
Sudão
cedeu
notor
parti
redig
racioc
Lacerda
Navarra
desente
entorno
sonoras
Alcântara
antecesso
alienígena
disputando
operadores
espirituais
socialistas
##anie
Mim
Nie
##tices
Kids
hisp
mega
síla
##élicos
Cross
Simão
Steel
arbus
capas
impactos
nascidos
situadas
eleitorais
estudantil
##Au
##LP
##dua
##ids
##ocar
127
Cis
Nad
fará
##Aranha
##tórica
##ônimos
Explo
Force
Grace
Japan
embos
parente
abandona
ativista
emissões
dispersão
evidencia
reorganização
##ai
##met
Io
Kur
##grupo
Buff
Muss
Year
##centos
dance
regen
Cartago
Vincent
piscina
muscular
Cleveland
Singapura
processador
##HA
##ett
##Esta
##tola
##tole
Itu
Lag
Stuart
falava
parana
goleada
mineira
moderado
comissões
derrotada
escolares
judiciais
auxiliares
diminuindo
metodologia
superficial
##/7
##nada
##urou
##visa
ria
abus
##diovis
##ômetro
Júlia
tiver
ícone
##unidade
Artilh
Gibson
chapéu
marrom
anteced
castelos
domingos
premiada
salvação
advogados
obrigações
plantações
administrar
ilustrações
##dá
##iny
fí
##ravam
Exer
Grey
iron
##itismo
##ursões
entro
exibe
##trópole
Armada
Falcão
cinzas
joelho
##viamente
dourada
Controle
conexões
cromosso
marítimo
perdidos
pioneira
aconteceram
manipulação
interrompida
reconhecidas
##EI
##Ou
MA
##rary
##roma
##ropo
##venis
Jung
Tric
emig
íons
##terais
##úncias
Recon
Trump
cléri
Murphy
conser
espion
mérito
reside
trocas
##onização
Pokémon
cantada
cardíaco
fornecem
serviram
treinado
caçadores
telefonia
esportivas
colaborador
identificada
nacionalismo
##DO
##nor
07
une
##podes
##tarem
Head
faça
Craig
demar
etnia
##indades
idades
Estrang
afastou
colinas
trazido
Industry
infinito
precurso
cancelada
incluíram
poloneses
visitante
Paranaense
afastamento
sexualidade
transferidos
##RC
##Mem
##rero
##ágio
CDs
Céu
Rev
gay
hes
1925
##inares
Nazar
almas
cuida
machu
Menino
comboios
dramatur
grandeza
interino
ocuparam
colaborar
delegados
atribuídas
desemprego
observador
transtorno
criatividade
educacionais
Maç
Pint
subl
##iciado
##itares
Tracy
Viseu
metas
nitro
Passos
pleito
Mariano
Medeiros
conhecia
irlandês
objetiva
tamanhos
Contempor
expressou
muçulmano
terceiros
vitorioso
provisório
notoriedade
##ark
Ora
Raw
##tella
##ófica
Field
porno
claras
curvas
encara
metral
sertão
caminha
estadia
retomar
Álvares
afirmava
colecção
esportivos
obrigatória
proporcionar
##Ana
##TAN
##nche
MHz
##graph
##ntino
fals
##inista
elege
portu
robôs
cálcio
solene
Cascais
lutaram
roteiros
vestindo
projectos
entusiasmo
obstáculos
##cast
##mber
##sete
slo
##cacia
##sóvia
Clay
apla
geno
Jonas
belas
nuvem
valeu
Battle
Carmen
Consta
##turidade
##vimentos
Mercado
Salomão
amoroso
Varsóvia
pensando
##atualmente
eliminada
informado
regulação
revelaram
##atoriamente
##mentalmente
temporária
generalizada
92
##char
##iplo
sei
Arco
Yosh
Blood
Mônica
Páscoa
glória
seques
Queiroz
ausente
diretos
estrear
rápidos
Alentejo
puramente
sabedoria
selecionados
##fá
##imal
##mite
Miz
Gros
Penn
Polo
item
plen
robô
Orton
admit
oscil
quero
Pérsia
Racing
cantos
crises
forçar
Wallace
oriente
revital
convocou
folclore
fotograf
mecânico
Sindicato
frequenta
aceleração
implementar
missionário
##Je
##ank
##tuo
SO
lé
##mões
##eland
Hulk
Leal
anjo
Bowie
pilha
Emílio
Hunter
gastro
Cameron
Empresa
Express
Shakira
coroado
terapêu
anúncios
filhotes
guerrilha
ingressar
turística
destruindo
intermédio
procurador
Laboratório
trabalhavam
assentamentos
##LS
##Ber
##ppy
##colo
##ntis
##osso
##pino
##urai
108
Kam
USA
##cares
##ilera
##thern
1927
Snow
carn
deca
Hudson
multid
pecado
notação
revesti
Baptista
assinada
Aparecida
afirmaram
restaurado
touchdowns
turísticos
adicionados
terroristas
tratamentos
##EUA
##icar
##nded
Sue
##Paulo
##ndina
##ófilo
fero
Jeová
Shado
aritm
Usando
avança
pedaço
Ângelo
alterou
cardeais
começava
cerimônias
praticantes
disponibilizado
Ip
##cind
##ólia
Hop
Maj
Pau
##dicas
LGBT
Tess
debu
sant
##açúcar
Pante
átomo
ótima
Consul
Sergio
Talvez
bailar
chefia
feijão
portão
foguetes
atingiram
submetido
literárias
transmitidos
##DI
##róp
CBF
agar
inta
pausa
##elheiro
Warren
fígado
##inamento
Albânia
fiscais
francos
Qualquer
italianas
##"-
06
71
##bles
##ppel
Cub
Tak
1921
##cicaba
Hélio
Águas
Mozart
gregas
nomear
##ribuição
docente
lavagem
túmulos
ângulos
Kentucky
barragem
clássicas
traduções
trouxeram
divindades
preocupado
residencial
concentrações
economicamente
##Nós
##zon
PA
##erro
##modo
##roll
CEO
cif
Bola
Nero
Quer
Stro
fitas
Abadia
contex
reafir
reitor
##tebrados
Granada
ratific
vigente
Progress
detectar
historio
lembrado
cilindros
inaugural
perímetro
acreditando
locomotivas
visualizações
individualmente
##Bro
##omi
##ceno
##dent
##inco
##ogal
##unde
Bás
Fen
MMA
lab
##franc
##iquiá
##nández
Couto
modes
causam
capelas
coreano
Eurovisão
costeiras
ordenação
Exteriores
controversa
significados
arquitetônico
##tano
Did
##tecas
Desa
furi
penú
##crever
Teles
droga
incor
prévia
rotina
##icultura
compras
graduou
criminal
Francisca
admiração
barreiras
holandesa
destruídas
oferecidos
sindicatos
astronautas
exportações
Conservatório
##BB
##wi
##Pla
sh
##Rock
##mera
##tila
##urais
Seul
##aduras
##quismo
Aguiar
García
Winter
ajudam
exigir
passes
piores
repeti
sangre
##SmackDown
Aguilera
desporto
descrevem
juramento
polegadas
restrição
Libertação
consagrado
contingente
##cs
##Son
##ige
##inz
##ards
##bado
##inom
109
díg
##issos
Bull
Drag
Baker
Josef
arris
borda
Aveiro
brutal
detido
gangue
Journal
ficavam
passados
aposentou
uniformes
desempenha
interrompido
##Sch
Iv
##caia
##relo
Kno
Nin
##cença
##ppers
Aval
fuma
Hardy
Point
suíço
tanta
Garden
ocupava
passada
alimenta
cristais
cruzeiro
restauro
revelada
submarino
Procurador
sucessores
integridade
verdadeiramente
##Ol
##guel
rab
##Mania
##ponto
##ordial
Aeron
Bacia
fraqu
Gazeta
simult
Lançado
trajeto
Borgonha
Juventus
causadas
costeira
estímulo
inserção
nomencla
consciente
disputadas
frequentar
nutrientes
contratados
denominadas
reabilitação
##05
##dã
##sy
##Prin
101
Fru
Sra
lam
##duque
1908
Alas
##anismo
empos
hindu
juros
repent
diárias
anunciar
precisou
presidiu
retirados
descrições
observados
soviéticas
Productions
##cãs
##olha
##riso
nec
##enove
##maior
Bien
Godo
aliv
beta
##atinga
##úrgico
fibra
prema
prove
Espaço
Lutero
arredo
escada
sector
Orleans
orienta
tijolos
##zerbaijão
Diversos
Software
criativa
sugerindo
terremoto
autorizado
consentimento
##Gre
##Red
Fan
Hur
Igu
Fabr
Lava
into
trin
##tólico
Honra
Julia
subju
##órmulas
Almada
Tibério
duquesa
exilado
nativas
Islândia
decompos
escolhas
incêndios
artísticos
executadas
exteriores
fortalecer
legalmente
eliminatórias
##MT
##pit
03
RS
##flix
##ishi
##ping
##sais
Dro
##guard
##trito
Doce
Galo
##Centro
##iliano
##quinho
Store
selos
abunda
académ
##ionários
Podemos
filiado
operado
repente
Flandres
Lituânia
novidade
renovado
percussão
planejada
influenciar
prorrogação
acompanhando
aristocracia
##edi
CS
Ado
Vau
Hunt
Lins
Luna
aver
dose
poço
Blues
Ellen
Tyler
Silver
flutua
desvant
diários
enviadas
perigoso
preferiu
teóricos
seminário
utilizava
viajantes
Arquitetura
##uni
ás
##hail
##peda
##thon
Vio
##vidéu
Gior
inic
osso
##ielorr
##ispado
Hills
justa
pedag
##achment
voltam
Sevilha
confere
crucial
emprega
autorais
realista
conversas
dirigente
exigência
economista
funcionava
transações
estratégico
comemorações
institucional
##gê
##sí
##baco
##rema
##issip
Inês
Tiro
spin
##onaria
Magic
calif
##tivista
Simone
aéreos
recons
demônio
deveres
erguida
revelam
vigário
vocação
Londrina
agradável
paróquias
primitivo
registrar
integrando
monumental
##web
lê
##iche
##igne
##quist
pata
##itânia
##master
Betty
Melho
irrig
lagar
palha
socor
##ftwares
Aleixo
Sintra
Veloso
propos
##primeiro
Argélia
aliadas
chegava
erupção
ilegais
teórica
baterias
mandioca
partilha
##estruturas
Armstrong
femininos
irlandesa
##Med
##kon
##mãe
##pur
##Paul
##host
##ênus
Aut
Gou
bip
##cient
alas
##ríveis
malha
Nazaré
##tituição
Inglesa
aguarda
negocia
Anatólia
proibida
##isticamente
convocação
incidentes
israelense
pagamentos
protagonizou
##principalmente
reivindicações
##ug
##*
wa
##galo
Dei
Font
##colate
##itaram
Earth
Irene
Nação
plebe
câmbio
moldes
pânico
Guarani
cometer
indiana
favorita
suspenso
Frankfurt
altitudes
elaborada
fornecendo
desempenhar
matemáticos
desconhecidos
especializadas
##rec
##Char
##tadt
##tery
##agora
##icose
##naldo
1915
Jake
Pink
luxu
soja
##física
Atuou
Patro
Filmes
Fontes
Meteor
Quebec
Escolas
Rondônia
Ultimate
capturou
coroação
designer
expostos
palácios
povoados
Sebastian
encomenda
multiplic
unicamente
controvérsias
comercialmente
##Ent
##fun
##assi
##iders
##ndada
##íptico
Cairo
cabos
citou
julga
##atorial
##rupções
Inicia
Nenhum
Frances
reduziu
causaram
passavam
transpare
Estudantes
astronomia
importação
##mble
##ocal
146
Chá
TNA
pig
Noel
Pete
Sena
amig
simp
sobe
tatu
colun
Álbum
##democra
##queiros
Watson
tocado
##mentista
discord
orações
otomano
surgido
Heinrich
beisebol
dominada
registra
conduzido
dirigindo
oponentes
fertilidade
psicológico
resultantes
##kel
91
Aa
li
##arro
##namo
Dit
Say
Sche
exal
inco
réis
##estada
Dutra
Emily
divis
santa
tubos
destina
esquele
Adelaide
exceções
mostrada
Jefferson
impedindo
retratado
Azerbaijão
reestruturação
83
##iabá
##ndam
##nses
##rone
Rab
ido
##hoven
Anal
Core
Crow
Dado
Bonif
Havaí
envio
prosa
sueca
##formada
Deixou
chamas
provém
uniram
Jessica
Phoenix
fixação
Sistemas
agressão
congress
horários
situados
armamento
coloniais
discípulo
executiva
resolvido
Piracicaba
aeroportos
declararam
regulamento
competências
##92
##tore
##ments
##árzea
##itoras
afeta
Connec
Factor
Paixão
divino
Delgada
##futebolista
anarquista
apropriado
audiências
remanescente
##Cruz
##midas
Case
Hera
Yang
Chuck
Lemos
despa
refei
style
tropa
Formou
Turing
bonita
ducado
tática
Planeta
cercada
Guardian
atacando
coalizão
embarcou
francisc
palestra
promotor
marcantes
padroeiro
instaladas
Brasileirão
possibilitando
##orm
##tom
##tons
Kit
McL
##cioso
Aero
Robb
move
suma
Póvoa
bolas
vácuo
Amster
Provin
morava
pontas
subcon
Roberts
distint
seguros
viveram
Assuntos
Testemun
interlig
marinhas
verifica
periferia
recusaram
maravilhos
helicóptero
##EB
##jal
126
Rex
Sri
##torze
jato
##Donald
Alpha
Judic
impon
##minster
falsas
culpado
Michelle
demandas
elogiado
querendo
Almirante
Nacionais
criticada
relíquias
vermelhos
satisfação
##hecoslováquia
investigadores
##ndê
##nel
##rax
Ia
##dium
##poca
##quei
Aux
##Grand
##adure
##cista
Pack
##dentes
resson
unidos
Collins
Country
Evangel
deixada
fizesse
Mitchell
isolados
Normandia
concorreu
violentos
eletromagn
frequências
valorização
classificando
##jé
RJ
##dale
##ntic
##úbio
pag
ret
Rora
opôs
sina
Luigi
Metrô
carru
dores
secas
##coreano
##potâmia
Humano
Online
havido
russas
Georges
budismo
colisão
ginásio
géneros
porcent
reflexo
tornava
concílio
procuram
confiável
diplomata
estudando
masculinos
explicações
notavelmente
acrescentando
##!,
##bad
##nós
Fi
##naco
##ígio
Hau
##inhal
##rough
##under
Jama
Paes
Take
Vill
Copas
Emira
Rural
##nascida
Juntos
intera
Barroso
exposta
atingida
reunidos
Temporada
Petrópolis
excelentes
terrorista
antigamente
arrecadação
consideravam
##SO
£
##fen
GT
ân
##cila
Sna
##secre
1916
Café
Manh
reca
##ianças
Helen
Nixon
cacho
eterna
livrar
urânio
Pacheco
rápidas
preparou
alegações
fabricado
incorpora
perspectivas
Representantes
##58
##hua
##izz
##oud
##mall
##reno
##stal
##tara
Eve
Fly
##liano
Apre
Arru
Dale
Tríp
##ntário
##tassem
Ivete
Olinda
People
acções
amigas
exigia
haverá
setent
erguido
Esportes
epidemia
Bonifácio
Wellington
escreveram
##cie
##vém
##Deus
##body
##music
Gaia
Rand
Party
deses
grafo
Bósnia
admite
larvas
##rangular
Alencar
catorze
enfrent
promete
prémios
psiquia
condados
depender
excepção
extremos
quebrado
biológico
prestados
modificada
propagação
Paralelamente
explicitamente
##lue
##luz
##raz
##hang
##talo
##úcio
117
##World
##cedor
##desco
Alva
Anto
Docu
##culose
##cêncio
Revel
pacto
vamos
Acesso
Protes
Triple
danças
fungos
amantes
galáxia
patriar
prático
fórmulas
descontinu
secundárias
assistências
introduzidas
##CC
##cena
Box
Caç
Mud
Whe
##assân
puri
##weight
count
Dantas
incend
retoma
adquire
dióxido
enzimas
Airlines
cobertas
conhecem
juntando
suplente
tricolor
Econômica
autorizou
denominar
funcionam
militante
vanguarda
estivessem
hemisfério
preparando
##91
##lí
##300
##reu
##cock
##edor
fios
##Escola
encur
enver
habit
ruído
usual
##úblicas
aminoá
caíram
vivido
##fundador
Maurice
egípcia
gradual
outrora
tartaru
logística
suspeitas
aumentaram
##VI
##pho
##ocup
Vei
##cagem
Trek
##ículas
Mathe
Pitts
Rebel
acolh
perpé
Adrian
Harold
Tijuca
mortas
rastre
Android
Cartoon
Gilbert
Netflix
abriram
heroína
vínculo
atraindo
marcaram
ocupados
estudioso
California
imaginação
celebrações
dependentes
simplicidade
##Wo
##eri
##fio
##ppa
##roe
Alo
bit
und
##arque
cafe
##âmicos
acaso
beber
Ducado
Máximo
partil
Basílio
Simpson
amadure
aquando
servida
avenidas
criativo
lendário
restrito
Cavalaria
concursos
currículo
indicados
disputados
disputaram
fazendeiros
##xá
##max
tê
##nico
##sent
Meg
##gonal
##viais
Brás
##ressou
Camilo
Queens
esgoto
fatura
fraude
gostou
latinos
assessor
exercido
fechados
sacrific
aplicadas
celebrada
desculpas
governado
subsidiária
verdadeiras
directamente
subsistência
##écio
ses
##betes
##orgia
##villa
Dela
cáps
acorda
indefin
Escreveu
Produção
conceitu
realismo
Especiais
Recording
amplitude
maturidade
misteriosa
ultrapassa
Ferroviária
desaparecido
##/6
##IDS
##nge
##noma
##ritz
Gos
Fore
Form
Omar
lâmp
Claro
##enstein
festiv
##sucedido
Exemplo
Fighter
Período
alcunha
coincid
familia
vencida
##ndimentos
gratuita
riquezas
divertido
eclesiástica
inconsciente
universitários
##aldo
##coin
##comb
Func
Seja
funk
Julio
Keith
acarre
empenh
montou
Claudia
diretas
Finanças
cobrindo
desfiles
venezuel
Irmandade
Petrobras
acompanhados
colonizadores
##ert
##Live
##ason
Rez
jaz
##trada
Capa
Peña
leal
##couver
##feiras
##timore
Juríd
Pearl
Senna
drena
alegre
anorma
houver
poeira
Arquivo
Century
esferas
farinha
hidrául
prisões
suspens
trilhos
caminhão
adicionou
conclusões
consolidar
convencido
telejornal
proporciona
subordinado
Considerando
desigualdade
##qua
94
Anc
tox
Coro
Link
Mesa
Reyn
Delta
Randy
folhe
lagoa
##ciplinar
levadas
prevent
superou
Independ
afrescos
moderada
paralela
tornarem
Sinfônica
acontecem
defensiva
denúncias
Montevidéu
designados
meridional
Profissional
##It
##NO
##ful
##ief
##caju
##ules
##édio
##Inter
##fredo
##quila
Olga
drag
##ântico
##ólicos
Preta
cloro
honras
namora
Project
acessos
filogen
bolchevi
cardíaca
expostas
surgindo
estimular
monopólio
precursor
descentral
##EF
##mol
##ceto
##mons
##tins
sum
##mores
1870
Garo
Apolo
Hesse
Possu
alega
caças
mares
##ércules
Pietro
trajes
Mercury
legitim
pênalti
burguesia
Democracia
Judiciário
capitalista
geográficas
identificou
arqueológico
##eió
##kian
107
Foz
Von
Vul
##patia
##rella
Elim
locu
##aviões
##depois
##radora
Daily
Mater
abdic
cartu
justo
picos
Eleito
chumbo
conviv
mentor
editada
engloba
repetir
carregar
ingresso
sobrevive
constituiu
observadas
resistente
##idimensional
Mesopotâmia
atribuições
companheira
tecnológico
processadores
##--
##xt
##çá
##diz
Ig
##tors
##udos
##wall
Cad
Dul
1907
Adão
Call
##cepção
##propri
Latin
Sandy
criam
secos
##segundo
Holmes
Hughes
incumb
tratou
##cipiente
catalão
marcial
monárqu
plateia
Estrelas
diversão
encerrado
adquiridos
Testemunhas
sistemática
apresentavam
separadamente
universitária
##RT
##dida
##doro
Mind
etno
vela
Bueno
Movie
Franca
Modern
Terras
catalo
negras
prolif
trauma
Noronha
cereais
Complexo
crônicas
desistir
fantasma
voltadas
deposição
travessia
compatível
intercâmbio
superioridade
##VP
##óto
##nton
Lor
McG
##ómica
cate
cogu
##ispens
Jesse
macro
malig
Dublin
arquib
Pessoas
cortada
granito
natação
obtidas
exclusão
fechadas
genético
líquidos
Ministros
honorário
paralelos
interrupção
##Vol
##etê
##nan
##úng
Gó
lú
##João
##bero
##tube
Goa
Osa
dri
##lusão
##viado
Gaza
##social
colar
ratos
filmar
vindas
jogaram
oceanos
chinesas
herdeira
iminente
afluentes
pertenceu
desenhista
consecutivo
ultrapassar
##Mer
##ambu
##icum
##mosa
##nica
##quem
##éreo
##ômio
Byr
dob
##relli
##túbal
Agrí
Bols
Glor
Scha
abat
glob
orça
Mosco
deixá
gripe
Commun
pretas
Masters
benefic
pintado
galerias
gravando
##Associação
hegemonia
prejuízos
segurando
Comendador
abrangente
acrescenta
compressão
desaparece
espalhadas
prosseguir
Restauração
alfabetização
##av
##ved
##çosa
##ranas
##ínica
##ístas
Teod
clar
zumb
##isódio
##olores
##terias
##constru
Bastos
Claire
Cuiabá
Müller
geneal
namoro
Cecília
Inferno
Senador
Setúbal
confede
Mississip
poderosas
apaixonada
literários
produziram
tolerância
revolucionária
##DR
AT
##bone
##neth
Aba
Jar
##etnam
##nagem
Brun
empír
##iqueira
Bridge
Galvão
queijo
gerados
regista
chamaram
atendendo
consórcio
despedida
abrangendo
destacaram
demográfica
reportagens
tecnológica
visibilidade
autobiografia
##ès
##get
##iya
JT
##tini
##trus
##tsch
121
Boo
Cus
Trá
##creen
##idere
##ramos
dras
nauf
rito
##estade
azule
doces
lunar
ombro
pódio
##priação
Severo
pronta
Abraham
Consegu
persuad
treinos
assistiu
legítimo
aplicados
levemente
wrestling
##94
##rs
##Ara
##Good
##eite
Four
alca
Feliz
Nunca
corta
portá
##vamento
Imedia
Rogers
enriqu
Árabes
Prestes
poderem
pretens
Einstein
Fantasma
convence
diálogos
distingue
financiar
ocorridos
compartilha
democrático
compartilhar
estritamente
extremidades
##bato
##ilda
##rete
##Maior
##jetos
##veres
eclo
atrai
Amélia
térreo
usinas
étnica
especul
tentado
abolição
energias
mergulho
seriados
arquibanc
primordial
decorrentes
##especialmente
Comunicações
##("
Sty
Tha
##então
Buda
Fica
Mick
René
adje
Ellio
Madre
botão
desej
gatos
Divino
Saboia
buscam
despor
fertil
mágica
violon
Leonard
pensava
montante
razoável
Christina
diamantes
dividindo
enfrentam
escondido
espécimes
favoritos
veteranos
consideraram
Aí
##Miss
##dorf
##vena
Fas
Zan
pór
##treet
Rios
saxo
##rional
absur
ótimo
##inville
montes
romper
Valério
angular
assento
atrizes
apoiando
comparou
pavilhão
fronteiri
provocado
congregação
encontramos
substancial
drasticamente
##Wa
##hab
122
137
Cow
Ruy
Aven
Eixo
lend
Dispu
Edson
Guard
Stein
Usina
borbo
susce
vivas
##borough
Estava
salvou
enrique
munição
impressa
obrigada
##ificadores
Território
inspirados
fundamentos
representadas
##53
→
##Bel
##Dis
##ace
##agi
##ding
##http
##ween
Hid
Umb
quo
##Terra
##ceiro
Agri
Ward
foca
gasto
porco
##elodeon
Edição
emitir
fluxos
Madison
poética
##Instituto
cobertos
direções
Vancouver
convecção
touchdown
diplomática
documentários
posicionamento
##Val
##gum
##gén
##vra
NO
##atch
##tiro
106
clo
##copia
##ganta
##iloto
##pesso
1901
Ober
Page
Stock
Ville
bando
funer
ilust
ápice
Pombal
maquia
demorou
empatou
##cionistas
basílica
batizada
superado
doutrinas
instituiu
formulação
antepassados
##56
##mis
##põe
93
##John
##borg
Act
ESP
Psy
vid
##celino
##terana
Plata
dolor
plana
séria
##calipse
Hermes
Luanda
Mikhail
fluvial
proibiu
website
acústica
pirâmide
Baltimore
softwares
assassinos
consolidou
diretrizes
eliminados
paranaense
articulação
proclamação
Observatório
conselheiros
Metropolitano
extraordinária
##fle
##not
##zol
##íra
##mbre
##sada
Cun
##desde
1909
pará
##Diário
##grimas
Aaron
Perte
multa
noivo
Collor
Kepler
Platão
Poucos
Spring
neutro
##sucedida
Bolonha
Resende
renovou
##animidade
alianças
feminista
adjacentes
rodoviário
Westminster
desaparecer
Cristianismo
reconstruída
gratuitamente
interessantes
##kas
##chia
##orum
##zaro
##ébio
Soy
Spa
##óloga
1906
globo
Bronze
Contas
Ganhou
Orange
afetar
aguard
diesel
Edition
comenta
country
paródia
repouso
asiático
tratando
aberturas
protecção
dispensado
preparados
devidamente
peregrinação
experimentais
##87
##flu
##anca
##cumb
##iger
##main
116
Dod
Oro
Vai
##vasão
Toyo
lido
Canta
abade
exato
##bulário
retira
óptica
##cionadas
emitida
Inocêncio
modificar
orgânicos
quebrando
Declaração
automática
integrados
plenamente
raciocínio
apartamentos
nomenclatura
criminalidade
##FI
##gy
##óias
Daw
Ded
Pil
Tul
##duzir
blog
glor
mães
vera
Cambo
Saturn
fracos
lâmina
perdão
terços
##idencial
##issários
Roraima
entrado
suporta
decorado
esquecer
monitora
pacífica
Novamente
caminhada
magnética
norueguês
tabuleiro
Leopoldina
Conselheiro
dinamarquês
combustíveis
##phe
Cô
##Euro
##ceos
##ieve
##hanna
##telar
Loja
Sega
Yama
burgu
Friend
pediram
Concelho
Espanhol
cavernas
dezenove
elegante
inventor
regressa
tranquil
visitado
Edimburgo
derivadas
padroeira
instalaram
localmente
portadores
compensação
divergências
##’,
##Sul
##gne
##pet
##uas
##ible
UHF
##gebra
##ixada
##tilde
Evil
retá
Espec
Gonzá
laser
radar
virar
visco
bacias
##mentaram
correla
garotos
ressurg
anexação
desenhar
fileiras
parceira
trazidos
aclamação
auditório
Artilharia
incorporar
reproduzir
##HO
##cles
##fabe
Ach
Sau
dei
##asaki
##bitas
##varam
Alba
péss
pólo
surf
##istiam
##itório
Penha
Rossi
pagou
Óscar
úmido
Espada
atirar
Campina
Escrito
Kenneth
citadas
escapou
humilha
referiu
sensual
aumentam
búlgaros
indícios
pastores
subúrbio
Operações
mexicanos
castelhano
restaurada
telenovelas
computacional
solidariedade
##DH
##quê
##iane
##urar
USS
sit
##filme
##urora
Cold
Mura
Vamp
##itável
##ulante
##écnico
Ciclo
Horas
lumin
senti
##General
Leiria
incomo
velhas
Raymond
Natureza
Tropical
listados
protocol
vampiros
Resolução
transmite
regimentos
Aeronáutica
mencionados
renascimento
biodiversidade
extraordinário
##Die
Fr
io
##fall
##gina
Rin
##autor
##enson
##licas
Giro
Here
Ltda
Mota
Nancy
caído
matas
Lennon
Sandra
imenso
obstru
Emanuel
bancada
multina
namorar
Brooklyn
demônios
homônima
alimentam
ativistas
controles
abordagens
precedentes
realizações
decomposição
renascentista
##86
##·
##UTC
##mour
##prof
##rill
##érez
ONG
rót
##oloca
About
##terback
Quarta
##cionante
atrapal
buracos
condens
Estatuto
executou
tornasse
oferecida
substrato
necessitam
agropecuária
demonstrando
experimentar
potencialmente
##FM
##Top
##tud
##King
##tile
Eag
##mindo
1880
Guia
Math
Infin
Model
quilo
##Revista
Medina
Secund
Wonder
astron
gêmeos
##iocesano
Damasco
conturb
##temporada
enviando
concebida
elétricas
rejeitado
sensíveis
seriamente
Catarinense
cancelamento
##%,
##Hal
##ema
##nho
##pai
##chev
##ists
##itta
##ínos
144
Ges
Gle
HBO
##sobre
Cala
Reed
bico
##tation
Alpes
degen
hiato
Jaguar
cartaz
julgar
leilão
ídolos
contida
Proteção
exibidas
sentindo
concessões
contribuem
secretária
naturalista
tuberculose
classificações
##Doc
##gger
Neu
##amoto
##ênior
OTAN
rees
##tronic
Again
Ernst
baile
Berlin
atlânt
insegu
pensão
óperas
Criança
Ginásio
detalhe
diferem
inversa
nominal
amadores
descanso
quarteto
refletir
aproximou
ferrovias
sociologia
Nickelodeon
artificiais
conformidade
##ads
##girl
##êmia
quão
##antiga
Vênus
morro
posso
##cadeira
##membros
Campus
Maceió
cometa
óculos
##parência
Service
estelar
feridas
vértices
##Americanos
##lançamento
Orientais
ansiedade
avançados
confirmar
consistem
contratar
desempate
referidos
fabricados
propósitos
combinações
civilizações
##rons
##tase
124
Gur
##Mahon
##mação
##ntava
##ornos
Glas
Proc
##ciosos
Insta
enfor
##enciada
Núcleo
Ocorre
astero
bolsas
movido
##National
##Portugal
Juvenil
marchou
textura
budistas
estatais
Bombeiros
Episcopal
horizonte
indispens
completado
alimentares
severamente
ingredientes
##Mic
Eas
Not
rít
Mere
reún
##ecidas
Dirig
Lugar
Mante
dobro
##ndência
abusos
conflu
feiras
pintar
Formado
espadas
executa
negação
prender
Virginia
condutor
mesquita
renunciar
Vingadores
domicílios
significar
mercenários
WrestleMania
conservadora
diferenciação
##rú
##kee
##lav
##reio
Mód
##Trans
##enzie
##herói
##inski
##tódia
Cesar
Embra
Luzia
algas
davam
##ógrafos
Sarney
jogava
vulcão
Américo
Funchal
Stevens
acrésci
repetiu
manobras
panorama
saudável
simpatia
africanas
aumentada
excessiva
renomeada
Pittsburgh
distribuir
excepcional
compromissos
##Tr
##hed
##uar
##vet
Oz
##lava
##rato
Aer
ner
##ércia
Avis
Nada
frios
pedia
##análise
Leslie
##ndesliga
Fundada
abóbada
dourado
gordura
humilde
psiquiá
atraente
obrigando
Justiniano
ressonância
desconhecidas
diferentemente
##Fil
EMI
sep
##angai
##inclu
##ntain
##roldo
Viva
agre
cera
itin
##design
##itante
Filha
Stars
expon
faces
minia
argila
exigem
trazem
##rimentos
Crimeia
embrião
recinto
patentes
registos
suspeito
colocaram
aritmética
respiração
construindo
residenciais
primariamente
##IAA
##rose
Alv
cós
Caro
bone
estô
##áutico
Anjos
Glenn
Ocupa
adent
##ráticos
##ticismo
Madame
circun
frágil
imigra
Alterna
Bezerra
budista
concess
González
conceder
melhorou
sinônimo
transpla
vertente
avançaram
jurídicas
repetição
substitui
conheceram
incentivar
interessou
porcentagem
identificadas
##quar
nau
usá
##iares
##sandu
gaul
##orrido
Ralph
Turim
Vítor
respe
supra
##ionismo
Homens
primór
repass
sérios
Copenha
dominou
juvenis
rebotes
sapatos
informar
restrita
escadaria
incapacidade
##Les
##Meu
##Dire
##trão
##wing
Gus
Kos
Léo
Ryu
Jaci
Quir
acal
pânt
##lusive
Exped
Bienal
arquiv
saídas
viriam
ícones
##guitarra
##ticidade
Cláudia
abelhas
buscava
quadras
gostaria
recorrer
manifesto
acessórios
consoantes
espionagem
estendendo
finalistas
utilizavam
democrática
tempestades
unanimidade
##;"
##fru
AS
##PSDB
##íada
tib
Ciro
Jato
Lucy
Poly
Sald
indu
quim
##izante
Allan
Paiva
Women
mitol
pneum
##família
##ignação
Amanda
Brazil
Collec
Moreno
Médico
Rhodes
contem
deviam
filial
medalh
radioa
turnos
catalis
georgia
Business
colónias
condenou
inglesas
defendida
bombardeio
percentual
fiscalização
##93
##dre
##uco
##uka
SM
##itol
Ame
Kru
##ences
##ndade
##porou
##ussia
3000
Bord
Jair
Kill
Bagdá
Elena
aguda
novel
vogal
Ambros
Aranha
Embaix
Sulliv
insurg
ocupam
oposta
Machine
Montana
minério
motocic
sentado
sábados
##formática
##icionista
Bretanha
Gabriela
Christmas
chanceler
Dominicana
abundantes
comediante
experiente
dinossauros
reconstruir
treinamentos
empreendimentos
##UT
##Hel
##Sol
##vej
##apro
##ntom
##olia
Pha
tím
##assos
##waldo
ranc
##itenci
Legal
Lopez
Minha
evita
lance
##ânticos
Norman
adiado
Nascida
certame
dividem
condessa
operando
meramente
completando
notadamente
##Bal
##Mil
##arts
##crip
##gial
##novo
##olds
##tosa
Eth
bul
##marck
obsc
##fantes
##licana
Chang
Mexic
desmo
islam
Forest
prover
trocou
##interpre
Portela
Sagrado
Heroísmo
admissão
chamavam
engenhos
mantidas
recolher
vestidos
carregado
adicionada
satisfazer
vizinhança
indicadores
comentarista
##Bad
##Ste
##say
PM
it
Eul
Suz
##nomes
##ravos
##ítimo
##óximo
Nord
Passo
Wally
cated
circo
haste
##casting
Choice
lentes
Florida
McMahon
Pelotas
cometeu
mínimos
Missouri
Publicou
ouvintes
adaptados
exercendo
simpatiza
explosivos
filosófico
gravadoras
condecorado
preconceito
republicana
proprietária
prostituição
reformulação
revestimento
##Dan
##bby
##sua
ES
##nera
##tecn
Nak
Vet
alv
qua
##Livro
##arado
##gacia
##indus
Goku
Nave
Desem
Ponto
Pérez
vinil
cessar
rígido
húngaro
moradia
supremo
Patrícia
Sullivan
botânico
indifere
islâmico
advocacia
localizar
paralelas
detrimento
opositores
especulação
##Cr
##Ve
##800
##Mon
##sax
##figu
##três
##tsky
Emp
tré
##craft
##ffrey
##lamar
##pções
##tiful
1905
Cale
Cano
Drum
faca
##Dragon
##heróis
Banks
Freud
Hyper
Nobre
Veiga
Warri
fogos
heavy
fração
aplicou
atacada
escadas
esquina
montada
despeito
impedido
partiram
quadrada
existindo
traduzida
Alessandro
alinhamento
coeficiente
conquistados
observadores
##CT
##RI
##Hol
##Wal
##chek
hél
##monar
Nela
Nina
higi
##ariais
##áucaso
Baden
Valle
ceder
turca
Bayern
lesion
##neamente
ajudado
feriado
módulos
inimigas
instável
minorias
parecida
prejuízo
segredos
simetria
uruguaio
Habsburgo
bicicleta
presidido
procurado
instituído
funcionando
patrocinado
complementares
constitucionais
##Mal
##oró
##alem
114
SIC
Tex
##alhes
##tério
##urada
1902
Amar
Juda
Prix
Veja
alde
##status
##uridão
Shang
rubro
Cannes
cultos
focado
Antunes
cachorro
narrativas
programado
##400
##emp
##auto
Hub
Kol
##hense
##ricas
Lamb
Wend
cela
impl
ouve
paro
##berger
##hausen
Chanc
minor
sedes
##inomial
##tologia
Guiana
##inadores
prestou
profeta
pássaro
travada
detetive
protetor
aposentar
combustão
funcionais
primórdios
alienígenas
informática
##>
Rh
pH
##aser
##briu
##ntal
##teio
vic
##Homem
##mania
##noite
##ífero
Avaí
Hiro
Pire
abas
##hammad
##ristas
Laran
Place
Solid
Tietê
descu
inger
torná
##tadoras
Arruda
Grupos
Stones
custou
erosão
existi
ligava
##quisição
frentes
plantio
Cornélio
acomodar
autônoma
diagrama
enviaram
informal
isoladas
judaísmo
sargento
voltados
Pinheiros
demolição
entendido
florestal
governada
incursões
aposentado
argumentam
assassinar
depoimento
protegidas
respectivo
espectáculo
absolutamente
##57
##ox
##gaba
IGN
##bando
##iterr
##night
##oeste
##prano
Autó
Kyle
Manu
Shaw
##meiras
Amapá
Selva
Woods
saído
cancro
esculp
piadas
reúnem
vulgar
inferno
médicas
Hércules
consorte
mineiros
Cavalcant
orientada
vitoriosa
Humanidade
canadenses
corporação
homenagear
preliminar
##?
##Fer
##ame
mg
##cina
##gang
##mani
##rien
112
450
Liu
Pon
##bendo
##losão
##melos
##tires
Chia
dedo
enig
mero
##Guerra
Berna
estup
##eration
dorsal
Britney
Conserv
Ramalho
eslavos
imortal
jurista
petição
potente
residir
roubado
Agrícola
Sócrates
apoiaram
batalhão
memorial
homicídio
paradigma
Copacabana
sustentação
##HC
##irs
##ófon
foc
lis
##annon
##ntura
##onete
##turba
##diente
##idados
Boris
Karen
Tokyo
gesto
##trospec
Guitar
bonito
leitos
supers
tutela
Buarque
propaga
véspera
Hispânia
adoração
elaborou
pastoral
retratar
Mussolini
católicas
desastros
biológicos
Performance
conveniente
licenciatura
apresentadores
##iaí
##rov
Om
Age
Six
##forte
Moto
Subs
Wins
aman
tamp
Horta
Madri
anexo
lotes
##tragens
Castle
abadia
biblio
elevou
Claudio
Eusébio
globais
inverso
sólidos
Teodósio
escalado
acontecia
mantinham
filosófica
recuperado
consecutiva
##LO
IA
##Segu
##ttps
##xter
Kin
##adino
##teras
##tuoso
Toul
bené
Bruns
##tacular
Fisher
premia
sabiam
ampliou
categor
ouvidos
refugia
regimes
sujeita
desejado
ocupadas
Monumento
adequados
dançarinos
fazendeiro
antagonista
competidores
intermediário
##rip
##san
##lova
##nego
119
Pix
##berry
##entas
##super
##zeres
Alco
Bass
frau
Gradu
Manda
Motta
Volks
Canada
Cipião
Luthor
Roland
estamp
estrea
fecund
##enciados
Arnaldo
Danúbio
tocaram
Recursos
exilados
marinhos
limitação
naufrágio
ortodoxos
proclamou
reservado
culminando
profission
catarinense
legitimidade
ressurreição
especialidade
fortalecimento
##IX
##VC
##Sem
##bito
##coma
##enza
##leos
##oche
Síl
##fried
##iador
##psons
##ótipo
Adol
Cour
Heat
Roll
Sina
Drama
Frota
Storm
cadas
fixar
metab
pisos
renal
robus
minera
reflec
visava
##pendendo
Ademais
Círculo
Verdade
interse
cronista
iniciadas
relaciona
Apostólica
dominantes
escoamento
gravitacional
caracterização
##"”
##Ke
##TM
##agre
##fala
##icer
##imbo
##polo
HIV
cúb
##série
Bald
Dere
Mann
dama
##preend
Pensa
anfíb
legis
quinh
Amigos
Valley
prever
##istérios
Tesouro
atingem
racismo
Processo
Sardenha
equivale
premissa
recebiam
supermer
argentinos
expressiva
improvável
sucessivos
perturbação
antropologia
insuficiência
##08
##Blo
##oke
##use
Gh
##PMDB
##aven
##cono
##heta
##nata
129
Bog
Eli
Hou
Lyn
asf
ciú
fad
enci
gala
mari
##artney
##riotas
Abdul
Segue
cunho
distra
partem
tricam
viável
Redonda
silenci
desenhou
feriados
perigosa
renomado
renovada
agressivo
incapazes
mosteiros
orientado
Cavalcanti
manifestou
Provavelmente
repetidamente
##Fre
##lys
##mio
##gard
##kien
##mbat
Cás
##meyer
##ocado
##êmica
1904
baga
pesa
tumo
##sexual
Estão
alven
berço
Árabe
##diretor
Minnes
##a
##e
##o
##s
##r
##i
##d
##n
##t
##m
##u
##c
##l
##p
##v
##g
##f
##b
##h
##ã
##q
##ç
##é
##A
##1
##á
##C
##z
##í
##0
##S
##E
##P
##M
##x
##2
##j
##9
##ó
##O
##B
##D
##N
##T
##R
##I
##F
##ê
##y
##L
##G
##õ
##8
##k
##ú
##J
##5
##3
##4
##7
##6
##V
##H
##U
##à
##w
##â
##W
##K
##ô
##X
##Q
##Y
##Z
##É
##]
”
##”
##_
##Á
##ü
##°
##Í
’
##’
##ö
##»
##ñ
##è
##À
##ō
##Ó
##ä
##Ú
##ā
##а
##ć
##α
##́
##о
##ū
##Â
##и
##ë
##š
##е
##ł
##н
##ο
##р
##μ
##ν
##ø
##ş
##Ã
##ı
##ρ
##в
##æ
##×
##ς
##ε
##с
##ι
##Ç
##č
##к
##ī
##л
##σ
##τ
##}
##ا
##λ
##→
##т
##ß
##ï
##£
##{
##€
##å
##Ê
##β
##π
##ː
##~
##§
##ò
##κ
##\
##î
##ă
##−
##′
##ń
##ー
##Ö
##ω
##ð
##ì
##д
##ğ
##י
##ē
`
##`
##м
##у
##Ô
##ل
##@
##θ
##γ
##φ
##ו
##û
##δ
##ž
##†
##ر
##η
##ù
##υ
##ч
##ό
##й
##ș
##ί
##ي
##ś
##Š
##ن
##م
##±
##ה
##Å
##⁄
##א
##ン
##ý
##ά
##^
##Ō
##я
##С
##б
##ə
##ب
##χ
##و
##ы
##ь
##Σ
##ל
##ר
##г
##Δ
##Č
##ス
##ル
##Ü
##د
##п
##ˈ
##の
##з
##מ
##ή
##ě
##ש
##ラ
##ę
##İ
##®
―
##―
##ř
##έ
##س
##х
##ḥ
##∈
##≤
##В
##ב
##נ
##¬
##Î
##Đ
##♭
##Ø
##ő
##К
##А
##ת
##・
##Æ
##œ
##Ş
##ע
##ɛ
##ż
##イ
##ト
##М
##ی
##Π
##●
##đ
##リ
##Ł
##Ž
##¡
##ą
##ύ
##Р
##і
##ع
##↑
‐
##‐
##Ω
##ة
##ŋ
##्
##ク
##ṣ
##ت
##ه
##ד
##Д
##ц
##ा
##ṭ
##Ś
##ш
##ם
##ア
##ξ
##ف
##П
##Ḥ
##ش
##ǎ
##ح
##Α
##≥
##ロ
##大
##ţ
##ψ
##Н
##ן
##र
##ɔ
##Γ
##ッ
##Ò
##¥
##ח
##َ
##ְ
##ج
##シ
##ジ
##ʃ
##タ
##ド
##ζ
##ק
##い
##ẓ
##þ
##Φ
##ж
##כ
##￼
##Ñ
##Г
##Б
##›
##♯
##ź
##ָ
##া
##国
##Þ
##ʔ
##Õ
##Λ
##И
##„
##フ
##О
##ּ
##ἀ
##中
##Ä
##ʿ
##ִ
##פ
##म
##↔
##カ
##レ
##Ż
##日
##ț
##̈
##≠
##人
##ق
##「
##」
##ウ
##È
##マ
##न
##ἐ
##ィ
##이
##ÿ
##ė
##ز
##ャ
##ɐ
##ك
##ʾ
##オ
##テ
##天
##Κ
##ա
##า
##ブ
##ǔ
##ệ
##子
##ַ
##ط
##स
##ि
##ร
##ḳ
##■
##ニ
##バ
##山
##王
##ʻ
##Ε
##Т
##∞
##ュ
##ũ
##Μ
##ώ
##э
##ص
##ა
##∧
##月
##Л
##ט
##ṇ
##田
##～
##¿
##ʼ
##ס
##क
##े
##パ
##武
##ĩ
##Ф
##ј
##ِ
##⊆
##る
##ミ
##ह
##≈
##★
##⟨
##⟩
##Τ
##צ
##ា
##ọ
##∀
##た
##一
##道
##य
##व
##་
##ი
##⊕
##な
##Ā
##̄
##ֶ
##ז
##أ
##ে
##្
##⇒
##か
##デ
##ハ
##三
##年
##戦
##神
##ư
##प
##ी
##ῦ
##∆
##♦
##ナ
##法
##ǃ
##̃
##Θ
##Ι
##Е
##З
##ф
##ю
##خ
##त
##ả
##∨
##≡
##し
##コ
##ņ
##ɡ
##ɪ
##Ν
##র
##ェ
##ガ
##サ
##太
##ǐ
##ʒ
##Ш
##ง
##ม
##រ
##ạ
##ὸ
##う
##り
##メ
##城
##新
##明
##金
##ň
##ɑ
##ɾ
##ُ
##ک
##ম
##プ
##ム
##京
##東
##ġ
##ǂ
##Β
##Ο
##ё
##ֵ
##ন
##∃
##☆
##♠
##エ
##グ
##南
##宮
##小
##西
##ɣ
##ɨ
##Х
##ъ
##ג
##ज
##น
##ῆ
##∴
##、
##ん
##セ
##島
##文
##ɕ
##ך
##ग
##ẹ
##ὐ
##ῖ
##く
##こ
##て
##に
##北
##士
##美
##ů
##ơ
##Ч
##Я
##ত
##ิ
##ế
##ἰ
##↵
##√
##ち
##と
##ら
##キ
##チ
##皇
##대
##ħ
##ŭ
##Ɔ
##Ц
##ն
##ल
##ु
##য
##ე
##ễ
##ἄ
##₩
##▪
##あ
##ァ
##ダ
##会
##國
##女
##家
##少
##市
##空
##野
##나
##지
##한
##ŏ
##ƒ
##ƞ
##щ
##ր
##ֹ
##ض
##ब
##ก
##ท
##ั
##်
##ὁ
##‰
##が
##き
##ケ
##代
##学
##木
##本
##華
##Ψ
##У
##ћ
##آ
##ى
##ّ
##द
##ক
##ด
##ย
##ว
##ḵ
##ῶ
##‹
##⋅
##█
##ズ
##ノ
##ョ
##春
##高
##김
##다
##Ì
##÷
##ә
##ਾ
##เ
##ṅ
##ẽ
##ố
##ụ
##Ἀ
##⇄
##─
##さ
##だ
##っ
##ま
##を
##世
##之
##和
##無
##花
##藤
##라
##리
##아
##Œ
##͡
##Υ
##Ж
##ե
##غ
##گ
##ं
##্
##ਰ
##อ
##ས
##ầ
##ネ
##モ
##ワ
##名
##地
##川
##愛
##民
##水
##海
##真
##사
##하
##¢
##ɬ
##ʊ
##̊
##̲
##Η
##ո
##ो
##ল
##়
##ি
##რ
##ს
##ក
##ḡ
##ṃ
##ツ
##ボ
##五
##信
##十
##帝
##拳
##生
##行
##都
##長
##陽
##스
##의
##ų
##ǀ
##ǒ
##ǫ
##ช
##ส
##ะ
##ṛ
##ṯ
##ὰ
##ὶ
##♘
##お
##ザ
##ビ
##ベ
##上
##八
##公
##台
##平
##成
##清
##竜
##郎
##기
##Ć
##ĭ
##Ţ
##Ș
##ʕ
##̀
##̱
##अ
##ण
##আ
##ម
##ស
##け
##す
##つ
##み
##も
##ゴ
##ヴ
##府
##志
##星
##李
##記
##그
##로
##일
##자
##Ρ
##ـ
##پ
##ھ
##श
##।
##গ
##ོ
##ნ
##ព
##Ḳ
##ồ
##ớ
##♥
##ⲁ
##は
##ポ
##ヤ
##分
##司
##周
##土
##字
##心
##方
##時
##流
##百
##羅
##青
##風
##가
##도
##서
##©
##Ë
##ĥ
##ǁ
##ɲ
##̓
##̯
##І
##ў
##ׁ
##ף
##ْ
##ܐ
##ই
##ค
##ต
##ห
##่
##က
##ო
##ប
##ἔ
##ὴ
##ピ
##下
##仁
##冒
##四
##园
##安
##州
##張
##恐
##政
##楊
##火
##特
##玄
##白
##石
##隊
##마
##세
##에
##오
##요
##화
##ť
##ʁ
##ʌ
##̌
##̟
##̥
##Э
##ґ
##ء
##إ
##ਗ
##්
##ไ
##თ
##ជ
##ḍ
##Ẓ
##ấ
##ờ
##ἑ
##‡
##♗
##じ
##で
##ど
##ば
##め
##れ
##ォ
##ゲ
##ペ
##主
##二
##元
##千
##吉
##園
##夏
##忍
##望
##楽
##歌
##江
##漢
##狗
##界
##草
##血
##酒
##門
##音
##香
##魔
##黄
##만
##수
##시
##우
##주
##ļ
##ɖ
##̤
##̧
##Ю
##ի
##կ
##ئ
##ব
##ু
##ੁ
##พ
##ლ
##მ
##ត
##ិ
##ḏ
##ị
##ἡ
‒
##‒
##↦
##∂
##∩
##❣
##ⲟ
##ⲥ
##へ
##东
##伝
##合
##君
##學
##岳
##式
##強
##御
##教
##斯
##林
##校
##殿
##玉
##相
##社
##福
##節
##義
##英
##赤
##身
##龍
##건
##국
##루
##미
##방
##성
##연
##인
##현
##Ē
##Χ
##ѳ
##վ
##ث
##ذ
##ܕ
##ड
##़
##দ
##ো
##ৗ
##്
##ག
##គ
##ង
##ុ
##ḱ
##Ṣ
##Ọ
##Ἰ
##ὑ
##⊥
##│
##♣
##ⲉ
##ⲓ
##ⴰ
##ず
##ギ
##ヌ
##不
##井
##光
##出
##刀
##力
##华
##博
##原
##命
##官
##岡
##形
##影
##手
##書
##極
##氣
##河
##治
##球
##理
##立
##章
##良
##衛
##超
##里
##长
##険
##集
##魂
##민
##바
##부
##제
##학
##해
##호
##ĉ
##ĕ
##ĝ
##į
##ľ
##ŷ
##Ǝ
##Ɛ
##Ț
##ɗ
##ʂ
##ʉ
##̪
##ֲ
##־
##च
##ट
##ध
##ট
##ধ
##න
##ล
##ี
##์
##ང
##ར
##დ
##ვ
##უ
##ន
##ổ
##ở
##ữ
##ỹ
##ἱ
##∪
##♪
##ⲕ
##ⲛ
##ほ
##ゼ
##ヒ
##ユ
##今
##伊
##侍
##克
##六
##共
##兵
##内
##利
##前
##動
##双
##古
##只
##吳
##奴
##姫
##拉
##捜
##是
##朝
##森
##気
##永
##津
##浦
##港
##澤
##物
##的
##者
##联
##自
##術
##見
##説
##院
##電
##馬
##게
##고
##는
##박
##반
##보
##어
##음
##전
##정
##타
##Ð
##ŵ
##̅
##Й
##լ
##յ
##ս
##ւ
##ظ
##ٌ
##ے
##ख
##ष
##ै
##ঁ
##হ
##ੀ
##ി
##บ
##ุ
##แ
##้
##བ
##ལ
##လ
##ာ
##ბ
##ណ
##ទ
##ល
##ី
##ḗ
##Ṭ
##ỏ
##ộ
##ứ
##ἁ
##Ἄ
##Ἑ
##ᾶ
##ῥ
##₪
##✝
##ⲣ
##ⵉ
##『
##』
##え
##ょ
##ソ
##ヘ
##ヨ
##七
##九
##事
##仙
##佐
##体
##你
##典
##军
##剣
##功
##勝
##区
##口
##史
##后
##夢
##奇
##契
##奥
##如
##妙
##孫
##寺
##屋
##嶽
##布
##庙
##建
##张
##忠
##村
##松
##氏
##波
##深
##源
##牛
##猫
##画
##盟
##目
##祭
##秀
##篇
##精
##系
##約
##能
##舞
##虎
##蛮
##警
##豊
##銀
##阪
##雲
##韓
##順
##館
##남
##내
##너
##단
##모
##법
##선
##신
##야
##영
##원
##유
##재
##조
##차
##천
##환
##ď
##ŕ
##ű
##ǧ
##ɯ
##ʀ
##̩
##̹
##ғ
##Գ
##Մ
##զ
##տ
##چ
##ہ
##ە
##ۡ
##ܘ
##ܢ
##आ
##ई
##थ
##भ
##॒
##ছ
##ভ
##ਦ
##ਨ
##ਹ
##ਿ
##்
##ര
##ම
##ස
##จ
##ํ
##ྱ
##ྲ
##တ
##မ
##သ
##ហ
##ṁ
##ṕ
##ṗ
##ậ
##ủ
##ἕ
##Ἐ
##ὺ
##ῷ
##‖
##‚
##‟
##←
##⇔
##∅
##∉
##∗
##⊗
##✰
##ⲗ
##ⲙ
##。
##ぐ
##び
##ぼ
##や
##ゆ
##よ
##ろ
##わ
##丸
##位
##作
##侯
##保
##列
##加
##动
##协
##可
##同
##善
##堂
##外
##夜
##娘
##孔
##守
##宗
##宝
##実
##宫
##富
##實
##尾
##左
##師
##弘
##弾
##彦
##後
##徳
##恵
##悪
##我
##放
##昆
##智
##最
##格
##桃
##桜
##棍
##様
##樹
##橋
##正
##沢
##派
##涼
##澄
##為
##犬
##獣
##第
##紅
##紫
##経
##經
##经
##若
##茶
##葉
##蔵
##號
##要
##覺
##解
##語
##谷
##賦
##越
##遊
##達
##邦
##郡
##部
##量
##防
##陈
##限
##陵
##隻
##霊
##飛
##鳥
##강
##계
##동
##드
##디
##랑
##를
##상
##소
##안
##알
##약
##울
##좋
##태
##합
##희
##︠
##︡
##Ù
##Ī
##Ľ
##Ŋ
##ŝ
##Ɖ
##ǝ
##ʋ
##ʘ
##ˁ
##̇
##̡
##Ά
##Ζ
##Ξ
##ϊ
##ϝ
##ї
##қ
##ҳ
##Ա
##դ
##մ
##ք
##ܝ
##ञ
##ॆ
##ौ
##॑
##খ
##চ
##জ
##ফ
##স
##ਜ
##ਮ
##ਸ
##ੋ
##ੱ
##್
##ക
##വ
##ญ
##ณ
##ถ
##ภ
##ศ
##ษ
##็
##ນ
##ཀ
##འ
##ဖ
##ု
##ြ
##ტ
##ქ
##ძ
##ራ
##ስ
##ት
##ដ
##យ
##អ
##ំ
##ᠠ
##ᩣ
##ḫ
##ḷ
##ỳ
##Ἔ
##ὅ
##Ὀ
##ὕ
##ὲ
##ῳ
##∠
##⊤
##►
##ⲡ
##ⲧ
##ⲩ
##ⵍ
##ⵏ
##ⵓ
##ⵔ
##〜
##そ
##ぬ
##ひ
##ぶ
##べ
##ゃ
##ゾ
##久
##也
##书
##亜
##亞
##令
##仮
##何
##來
##傳
##僕
##先
##兼
##刘
##化
##卍
##友
##号
##向
##商
##圓
##坂
##坊
##墨
##多
##夫
##央
##失
##夷
##奈
##好
##孝
##尚
##局
##居
##崇
##崎
##希
##幻
##康
##徐
##德
##恭
##悟
##想
##意
##戯
##拓
##振
##撃
##敏
##斗
##断
##旅
##普
##景
##曲
##會
##有
##期
##未
##株
##根
##梁
##楚
##樺
##死
##段
##母
##比
##毛
##气
##汉
##沙
##沟
##洋
##浮
##消
##湖
##澳
##烈
##熊
##爆
##版
##獄
##瑞
##瓦
##甲
##男
##町
##直
##県
##砲
##祖
##禁
##禅
##私
##科
##秦
##種
##穂
##突
##等
##終
##織
##红
##翼
##聖
##肉
##臺
##艺
##菲
##萬
##蒙
##蓮
##藍
##蛇
##装
##詩
##记
##试
##走
##跡
##車
##通
##造
##運
##過
##遠
##那
##重
##間
##闘
##阿
##陰
##雄
##雅
##面
##食
##鹿
##黒
##거
##교
##끄
##람
##레
##막
##말
##무
##발
##밤
##번
##범
##별
##봐
##산
##삼
##설
##애
##양
##여
##을
##장
##종
##짓
##찬
##창
##처
##초
##크
##키
##트
##파
##판
##황
##효
##️
##Û
##Ū
##ǣ
##ǰ
##ɓ
##ɰ
##ɵ
##ʈ
##̚
##̴
##͈
##Ό
##ϟ
##Є
##Щ
##ђ
##ќ
##ң
##ҷ
##һ
##ө
##Հ
##գ
##շ
##ց
##֣
##ܗ
##ܠ
##ܪ
##ܬ
##މ
##ދ
##ަ
##ު
##ढ
##ॊ
##প
##ী
##ਂ
##ਪ
##ਭ
##ਲ
##ਵ
##ੜ
##ੰ
##ર
##ି
##ப
##ಂ
##ಕ
##ರ
##മ
##ല
##ാ
##ක
##ත
##ා
##ි
##ข
##ธ
##ป
##ผ
##ื
##฿
##ใ
##າ
##ເ
##ཆ
##ད
##ི
##ུ
##င
##း
##გ
##კ
##ფ
##ჯ
##ᅠ
##ል
##መ
##ቤ
##ተ
##ክ
##ዊ
##ያ
##ខ
##ច
##ថ
##ួ
##ែ
##Ẹ
##ỉ
##ἥ
##ἦ
##Ἡ
##ἴ
##ἶ
##ὖ
‛
##‛
##‧
##₤
##₹
##↝
##∕
##∙
##≐
##⊩
##♀
##♂
##♕
##✓
##ⲅ
##ⲏ
##ⵎ
##ⵡ
##《
##》
##ぎ
##せ
##む
##万
##丘
##丹
##乱
##乾
##了
##争
##云
##亲
##介
##仔
##仕
##伏
##住
##佑
##佳
##俊
##傅
##僧
##儀
##儒
##切
##別
##制
##則
##勉
##務
##包
##匹
##區
##单
##占
##卫
##味
##咲
##唐
##喜
##嘉
##器
##在
##坐
##堤
##場
##塚
##壱
##変
##夕
##奉
##妹
##始
##委
##季
##宇
##宋
##定
##容
##察
##寶
##対
##射
##尋
##尺
##嵩
##巡
##工
##常
##幽
##广
##庁
##弱
##役
##必
##急
##性
##总
##恋
##悠
##感
##慈
##應
##戀
##战
##戰
##戸
##房
##扶
##承
##技
##持
##推
##攻
##旗
##易
##昭
##晴
##来
##杨
##柳
##栗
##次
##步
##歲
##汗
##泉
##泣
##洛
##浄
##渡
##湾
##潘
##灯
##焼
##煙
##熱
##爾
##狂
##独
##璋
##甫
##电
##當
##痛
##益
##盛
##眠
##着
##禹
##秋
##穴
##策
##管
##篠
##紀
##級
##細
##繁
##级
##罪
##羽
##翔
##耳
##聽
##育
##胡
##脅
##臣
##至
##致
##舒
##艦
##芳
##苑
##荘
##藝
##藩
##虚
##虞
##融
##衡
##袁
##裕
##褒
##覚
##角
##言
##計
##訓
##試
##読
##豆
##貴
##貿
##賀
##賢
##贝
##贤
##赛
##趙
##足
##跋
##路
##踊
##軍
##転
##輝
##辛
##运
##这
##進
##遇
##郭
##郷
##鈴
##銃
##鍊
##鎖
##鐸
##鑑
##银
##関
##阮
##陳
##隆
##隠
##雪
##零
##雷
##霧
##非
##飲
##餅
##骨
##鬼
##麗
##黃
##齋
##齐
##간
##구
##군
##글
##금
##꿈
##난
##년
##노
##늘
##니
##님
##당
##데
##돼
##들
##래
##려
##령
##머
##메
##봄
##블
##비
##빨
##쁜
##생
##션
##순
##심
##았
##와
##용
##저
##점
##젝
##중
##줘
##직
##진
##철
##청
##최
##치
##카
##케
##터
##텔
##통
##프
##홍
##활
##𐬁
##¤
##¶
##Ï
##Ý
##Ĝ
##Ħ
##ĵ
##ķ
##ĺ
##Ť
##Ŷ
##Ə
##ƣ
##Ǧ
##Ǫ
##ǭ
##ǯ
##ǿ
##ȓ
##ȟ
##ȳ
##ɒ
##ɘ
##ɳ
##ɴ
##ɸ
##ˀ
##˄
##˥
##̆
##̑
##̔
##̞
##Ή
##ΐ
##Ђ
##Ј
##Љ
##Ъ
##Ь
##є
##љ
##ѣ
##ү
##ұ
##Ӏ
##ӿ
##Ս
##բ
##թ
##ղ
##պ
##փ
##ֱ
##ֿ
##ץ
##،
##ؤ
##ٍ
##ٹ
##ژ
##ۆ
##ܒ
##ܚ
##ܛ
##ܦ
##ܩ
##ܵ
##ހ
##ލ
##ެ
##ް
##ँ
##ः
##ए
##ङ
##ळ
##ृ
##ং
##অ
##শ
##ৰ
##ਕ
##ਚ
##ਤ
##ਬ
##਼
##ત
##મ
##ા
##க
##ர
##ಣ
##ಸ
##ೀ
##ഗ
##ണ
##ത
##പ
##യ
##റ
##ീ
##േ
##ජ
##ය
##ර
##ව
##හ
##ු
##ෙ
##โ
##ຂ
##ງ
##ຈ
##ດ
##ວ
##ສ
##ະ
##ན
##ཚ
##ེ
##ྐ
##ྒ
##ྗ
##ྟ
##န
##ရ
##ိ
##ီ
##ူ
##ေ
##့
##ှ
##ზ
##ღ
##შ
##ᄂ
##ᄊ
##ᄋ
##ᄐ
##ᄑ
##ሃ
##ላ
##ማ
##ር
##በ
##ን
##አ
##ኢ
##ኤ
##እ
##ከ
##ይ
##ዮ
##ጵ
##Ꭼ
##Ꮎ
##Ꮒ
##Ꮧ
##វ
##ូ
##ើ
##ៃ
##ោ
##ះ
។
##។
##ᨶ
##ᴪ
##ḇ
##ṏ
##ṓ
##ṳ
##ẩ
##ắ
##ẻ
##ự
##ἠ
##ἣ
##ἤ
##ἵ
##ὀ
##ὄ
##Ὕ
##ὠ
##ὤ
##Ὧ
##ῃ
##ῴ
##₲
##ↀ
##↓
##⇌
##∇
##∖
##≅
##⊸
##⋀
##├
##▶
##▼
##◇
##◊
##☭
##☰
##☷
##♫
##➡
##ⴳ
##ⴷ
##ⵜ
##〇
##〖
##〗
##ざ
##ふ
##ホ
##丷
##丽
##乃
##交
##亭
##亮
##仰
##任
##伎
##伯
##伶
##余
##佛
##併
##侵
##便
##俗
##修
##倒
##偉
##健
##偶
##充
##兎
##兔
##党
##具
##円
##冰
##冷
##准
##凯
##凹
##刊
##刑
##刻
##剛
##劉
##勇
##勢
##匡
##半
##協
##卜
##印
##却
##厄
##厘
##厥
##厳
##取
##受
##右
##吟
##吸
##吹
##员
##員
##哲
##唱
##喰
##嗎
##因
##団
##囲
##圏
##圣
##场
##坛
##坝
##坡
##坪
##型
##埋
##堀
##塊
##墜
##壁
##壮
##売
##壽
##奪
##妄
##妨
##姊
##姑
##姿
##威
##媽
##嫡
##孟
##孤
##孩
##宅
##宣
##宵
##宿
##寂
##密
##寇
##寝
##寧
##将
##尉
##尽
##尿
##屏
##履
##岐
##岛
##岩
##岸
##嵐
##嶋
##巨
##巫
##巻
##师
##帥
##席
##干
##幸
##幹
##度
##廃
##廣
##弓
##弦
##当
##彩
##彰
##彼
##律
##従
##得
##微
##忌
##念
##怒
##怨
##怪
##悝
##情
##惠
##惣
##惨
##惲
##愚
##慎
##慧
##憂
##懐
##才
##抑
##抱
##抵
##拙
##拾
##挙
##捷
##排
##接
##摩
##播
##擧
##改
##救
##敷
##斋
##斎
##料
##施
##族
##旦
##旬
##旭
##时
##昇
##昌
##昧
##晈
##暦
##暮
##曌
##曖
##曜
##更
##曹
##朗
##札
##朱
##朴
##机
##杂
##杉
##杜
##束
##条
##板
##极
##析
##果
##枢
##架
##柄
##染
##柚
##栄
##核
##栽
##桂
##桑
##桥
##梅
##棚
##棟
##植
##業
##楼
##標
##権
##機
##欅
##欧
##歐
##殊
##殺
##殻
##氷
##汚
##汤
##汪
##決
##況
##注
##泰
##洞
##浅
##浜
##浪
##混
##渋
##渦
##游
##湯
##滚
##滝
##滸
##漆
##演
##漫
##潜
##激
##瀑
##灣
##灵
##炎
##焦
##照
##煮
##熙
##燈
##燕
##狩
##狼
##猿
##率
##珊
##珍
##珠
##珪
##班
##琵
##琶
##瑠
##瓶
##甘
##甜
##用
##畢
##番
##疆
##疾
##癖
##発
##皃
##盆
##盲
##省
##督
##瞬
##矢
##知
##破
##碑
##碧
##磨
##祥
##禎
##禪
##秘
##程
##窪
##端
##竹
##符
##箱
##篤
##簿
##米
##糕
##紋
##純
##継
##維
##網
##綾
##緒
##線
##編
##緩
##緯
##縄
##繭
##纪
##络
##罗
##置
##罰
##考
##聞
##職
##股
##肥
##胤
##脉
##脚
##腹
##航
##般
##船
##艇
##芝
##芭
##芸
##苗
##茂
##荒
##荣
##菊
##菜
##菩
##萌
##著
##葛
##董
##葬
##蒻
##蔡
##蕉
##蕭
##薙
##薦
##薩
##薫
##藏
##蘭
##虐
##虫
##蜜
##蝦
##蝶
##螂
##螳
##衣
##袋
##袖
##裏
##襲
##覇
##視
##親
##観
##訂
##詞
##詠
##話
##誓
##調
##請
##論
##諦
##諸
##謀
##譲
##護
##诗
##语
##豐
##象
##豪
##貞
##資
##賈
##賞
##赵
##軽
##輩
##轉
##轟
##达
##逝
##週
##遍
##遣
##遺
##還
##邑
##邓
##邱
##邸
##鄧
##酢
##酸
##醒
##釜
##鉄
##鋭
##鋼
##録
##鍛
##鎧
##鎮
##鐘
##鐵
##间
##队
##阳
##陣
##隅
##際
##隣
##隷
##雙
##雨
##需
##露
##靈
##靴
##韬
##韻
##領
##頤
##頭
##顧
##颐
##飾
##養
##首
##騎
##魄
##鮑
##鳴
##鴻
##鶯
##鸣
##麻
##鼻
##齡
##龙
##ꞵ
##각
##감
##개
##결
##곱
##궁
##근
##길
##깃
##까
##꺼
##넌
##논
##누
##달
##담
##더
##덕
##던
##돈
##돌
##둥
##등
##딱
##럼
##름
##림
##맨
##면
##목
##못
##문
##물
##뭐
##밖
##밥
##배
##뷰
##븐
##빤
##석
##섬
##섭
##셔
##손
##솔
##송
##숙
##슬
##식
##싶
##씨
##않
##업
##엔
##역
##예
##온
##왕
##워
##월
##윤
##익
##잎
##절
##좀
##좌
##줄
##즐
##짱
##째
##쫄
##찾
##척
##첫
##춰
##칠
##컬
##콤
##토
##톱
##투
##티
##틴
##팝
##팠
##폼
##풀
##피
##행
##향
##협
##훈
##휴
##𐬯
##🇷
##Ċ
##ċ
##Ď
##Ĕ
##Ė
##Ġ
##Ģ
##Ķ
##Ņ
##Ŗ
##Ř
##Ŭ
##Ů
##ƛ
##ƭ
##ǚ
##ǥ
##ǵ
##ǽ
##Ȃ
##ȃ
##Ȇ
##ȇ
##Ȋ
##ȋ
##Ȏ
##ȏ
##Ȗ
##ȗ
##ɟ
##ɤ
##ɥ
##ɫ
##ɭ
##ɹ
##ʐ
##ʑ
##ʝ
##ʟ
##ʤ
##ʦ
##ʧ
##ʹ
##ʽ
##ˆ
##ˇ
##ˊ
##ˋ
##ˌ
##ˑ
##˧
##˯
##̂
##̍
##̐
##̠
##̣
##̨
##̺
##͵
##Έ
##Ύ
##Ϙ
##ϛ
##ϡ
##ϫ
##Њ
##Џ
##Ы
##ѕ
##њ
##џ
##Ѡ
##ѡ
##Ѧ
##Ѩ
##Ѫ
##Ѭ
##Ѯ
##ѯ
##Ѱ
##ѱ
##Ѳ
##Ѵ
##Ґ
##Қ
##Ҝ
##ҟ
##Ҷ
##ҹ
##Һ
##ӕ
##Ә
##ӡ
##ӧ
##Ө
##Բ
##Դ
##Ե
##Զ
##Է
##Թ
##Լ
##Խ
##Կ
##Ռ
##Վ
##Փ
##Ք
##ՙ
##՚
##խ
##ծ
##հ
##չ
##ջ
##ռ
##֑
##֖
##֥
##֫
##֭
##ֻ
##ֽ
##ׂ
##װ
##׳
##״
##ً
##ٔ
##څ
##ڇ
##ڈ
##ڑ
##ڙ
##ڠ
##ڬ
##ڭ
##ڳ
##ڻ
##ۍ
##ێ
##ې
##ܓ
##ܖ
##ܡ
##ܣ
##ܥ
##ܫ
##ܲ
##݇
##ނ
##އ
##ވ
##ޝ
##ާ
##ި
##ީ
##उ
##ऋ
##औ
##घ
##झ
##ठ
##फ
##ू
##ॐ
##উ
##ঐ
##ঘ
##ড
##ণ
##থ
##ষ
##ৃ
##ৱ
##ਆ
##ਖ
##ਘ
##ਟ
##ਣ
##ਥ
##ਫ
##ੂ
##੍
##આ
##ગ
##જ
##બ
##શ
##સ
##ી
##ુ
##્
##ଉ
##ଗ
##ଧ
##ର
##ଳ
##ஏ
##ங
##ச
##ஜ
##ம
##ி
##ூ
##ே
##ಅ
##ಗ
##ಟ
##ದ
##ನ
##ಪ
##ಬ
##ಮ
##ಯ
##ಳ
##ವ
##ಷ
##ಾ
##ಿ
##ು
##ೂ
##ೃ
##ೆ
##ೇ
##ೈ
##ೊ
##ം
##ആ
##ച
##ഞ
##ബ
##ള
##സ
##ഹ
##ൊ
##එ
##ණ
##ද
##ධ
##ඳ
##බ
##ල
##ශ
##ේ
##ෛ
##ෝ
##ฏ
##ฤ
##ฬ
##ๆ
##ກ
##ຄ
##ບ
##ປ
##ພ
##ລ
##ຫ
##ອ
##ັ
##ິ
##ຸ
##ົ
##ແ
##້
##ໍ
##།
##ཇ
##ཏ
##ཐ
##པ
##ཕ
##ཟ
##ཡ
##ཨ
##ྫ
##ྭ
##ླ
##ဗ
##ဘ
##ယ
##ဝ
##အ
##ဦ
##ဧ
##ဲ
##ဵ
##ျ
##ၼ
##ႈ
##პ
##ც
##წ
##ხ
##ᄀ
##ᄁ
##ᄃ
##ᄅ
##ᄆ
##ᄇ
##ᄉ
##ᄌ
##ᄎ
##ᄏ
##ᄒ
##ᄚ
##ᄡ
##ᄫ
##ᅧ
##ᅪ
##ᅰ
##ᅱ
##ᅲ
##ᅴ
##ᅵ
##ᆪ
##ᆬ
##ᆭ
##ᆰ
##ᆱ
##ᆲ
##ᆳ
##ᆴ
##ᆵ
##ሁ
##ህ
##ሊ
##ሕ
##ሞ
##ረ
##ሪ
##ሬ
##ሰ
##ሲ
##ሳ
##ቀ
##ቅ
##ባ
##ብ
##ታ
##ቸ
##ኋ
##ነ
##ካ
##ኰ
##ኸ
##ዀ
##ዋ
##ው
##ዓ
##የ
##ደ
##ዲ
##ዳ
##ዴ
##ድ
##ጉ
##ግ
##ጣ
##ፋ
##ፌ
##ፍ
##ፐ
##፭
##፻
##Ꭰ
##Ꭷ
##Ꭹ
##Ꮉ
##Ꮝ
##Ꮣ
##Ᏹ
##ᐁ
##ᐊ
##ᑦ
##ᓄ
##ᓇ
##ᓯ
##ᖅ
##ឋ
##ធ
##ឧ
##ឮ
##ឿ
##េ
##៉
##់
##៍
##័
##ᠨ
##ᠭ
##ᠰ
##ᠴ
##ᠷ
᨞
##᨞
##ᨠ
##ᨧ
##ᨱ
##ᩃ
##ᩋ
##ᩕ
##᩠
##ᩢ
##᩶
##Ḍ
##Ḏ
##Ḡ
##ḣ
##ḭ
##ḿ
##ṍ
##Ṯ
##ṵ
##ṹ
##ẅ
##ẍ
##Ấ
##ặ
##Ẽ
##ề
##ể
##ỗ
##ợ
##Ứ
##ừ
##Ἁ
##Ἃ
##Ἤ
##Ἥ
##ἷ
##Ἱ
##Ἵ
##Ὄ
##Ὅ
##ὒ
##ὗ
##ᾅ
##ᾠ
##ᾰ
##ῇ
##Ῥ
##₢
##₧
##₱
##₴
##℗
##℟
##℣
##⅋
##⇐
##⇢
##∏
##∑
##∓
##∝
##∥
##≪
##≫
##⊃
##⊊
##⊙
##⊞
##⊢
##⊦
##⊧
##⊨
##⋁
##⋋
##⋌
##⋔
##⋯
⌈
##⌈
⌉
##⌉
##⎖
##⏤
##┌
##┐
##▲
##◌
##◢
##◤
##◦
##☀
##☉
##☠
##☤
##☪
##☱
##☲
##☳
##☴
##☵
##♉
##♏
##♒
##♔
##♡
##✩
##✶
##⬇
##ⲃ
##ⲇ
##Ⲭ
##ⲭ
##ⳡ
##ⴹ
##ⴻ
##ⵃ
##ⵊ
##ⵖ
##ⵣ
⸱
##⸱
##々
##ぃ
##げ
##ご
##ぢ
##づ
##ぷ
##ぺ
##ぽ
##ゥ
##ヲ
##ㄖ
##丁
##丈
##与
##且
##丙
##丞
##个
##串
##举
##义
##乏
##乗
##乡
##亀
##予
##于
##亥
##产
##亨
##亩
##享
##亳
##亿
##什
##仏
##他
##们
##件
##份
##企
##伐
##众
##优
##伴
##伸
##伺
##但
##低
##使
##例
##依
##侠
##侮
##促
##俞
##俸
##俺
##倉
##個
##候
##借
##倣
##倫
##倱
##倹
##假
##偏
##偵
##偽
##傍
##傑
##傘
##備
##催
##債
##傾
##働
##像
##僚
##僵
##償
##優
##兄
##兆
##免
##児
##兜
##入
##內
##兩
##兰
##兴
##再
##冑
##冗
##写
##农
##冠
##冨
##冯
##冲
##凉
##凌
##凍
##凝
##凤
##凰
##凶
##凸
##刁
##刈
##划
##初
##判
##别
##到
##刺
##削
##剋
##剖
##剤
##剰
##劃
##劇
##劍
##劣
##助
##努
##励
##劾
##势
##勅
##勘
##募
##勧
##勲
##匁
##匂
##匈
##匠
##医
##匿
##升
##卑
##卒
##卓
##単
##即
##卵
##卸
##卿
##厚
##厭
##参
##又
##叉
##及
##反
##发
##叔
##叙
##句
##叫
##召
##各
##吏
##吐
##吗
##含
##呈
##呉
##呼
##咎
##咪
##咯
##哀
##品
##哉
##哥
##哨
##唄
##唆
##唇
##唯
##啊
##啓
##喚
##喝
##喧
##喪
##喫
##喬
##営
##嗣
##嘆
##嘘
##嘩
##嘱
##噛
##噠
##噴
##嚇
##囚
##回
##团
##圆
##圍
##圖
##圜
##圭
##圳
##坑
##坚
##坤
##垣
##垦
##執
##培
##堅
##堕
##堪
##報
##塀
##塁
##塑
##塔
##塗
##塞
##塩
##塾
##増
##墳
##墾
##壇
##壊
##壌
##壤
##声
##壶
##壺
##夙
##头
##奔
##奨
##她
##妃
##妇
##妊
##妖
##妥
##妻
##姒
##姓
##姻
##娠
##娯
##婆
##婚
##婷
##婿
##媒
##媛
##嫁
##嫌
##嬢
##存
##孙
##宛
##宜
##宰
##宴
##寄
##寛
##寡
##寨
##審
##寮
##寸
##寿
##封
##將
##尊
##導
##尔
##就
##尼
##屈
##届
##屍
##展
##屯
##岬
##岭
##峠
##峡
##峰
##崩
##嶌
##嶺
##巌
##巧
##己
##已
##巿
##帆
##帖
##帽
##幅
##幕
##幟
##幣
##幫
##幾
##床
##底
##庫
##庶
##庸
##庾
##廉
##廊
##廌
##廟
##廬
##廷
##开
##弇
##弊
##弐
##引
##弟
##弥
##弧
##强
##彈
##录
##彫
##彭
##征
##待
##復
##循
##徴
##徹
##徽
##忙
##忽
##怀
##怖
##思
##怠
##恒
##恢
##恥
##恨
##恩
##恪
##悔
##患
##悦
##悩
##悼
##惑
##惜
##惡
##惰
##愁
##愉
##慌
##慕
##慢
##慨
##慮
##慰
##慶
##憎
##憤
##憩
##憶
##憾
##懇
##懲
##懷
##懸
##戏
##戒
##截
##戲
##户
##戻
##所
##扇
##扉
##打
##払
##扱
##找
##抄
##把
##投
##抖
##抗
##抜
##択
##护
##披
##抹
##押
##抽
##拂
##拍
##拏
##拐
##拒
##拘
##招
##拜
##拠
##括
##拷
##拿
##按
##挑
##挟
##挿
##捕
##据
##掃
##掌
##掘
##掛
##控
##措
##掲
##描
##提
##揚
##換
##握
##援
##揺
##搬
##搭
##携
##搾
##摂
##摘
##撤
##撫
##撮
##撲
##擁
##擦
##擬
##敗
##敢
##散
##整
##數
##斉
##斜
##斤
##斥
##斬
##斷
##旋
##无
##既
##旧
##旨
##昊
##昔
##晃
##晉
##晞
##晶
##暁
##暇
##暢
##暫
##暴
##曇
##曙
##替
##朕
##末
##术
##朽
##杏
##杯
##枕
##枠
##枯
##柏
##某
##柔
##柱
##柴
##树
##栓
##桀
##桓
##桟
##條
##梟
##梢
##梦
##梨
##棄
##棋
##棺
##椎
##検
##概
##榮
##槽
##模
##橘
##橙
##欄
##欺
##欽
##款
##歓
##歳
##歸
##殉
##殖
##殥
##殴
##殷
##汀
##汁
##汝
##沈
##沖
##没
##沸
##油
##沼
##泊
##泌
##泡
##泥
##泫
##泳
##泽
##洁
##洗
##洪
##洲
##活
##洽
##浣
##浸
##涂
##涙
##涯
##淀
##淑
##淡
##淮
##添
##渇
##渉
##渓
##渭
##湿
##満
##準
##溝
##溥
##溪
##溶
##滅
##滋
##滑
##滞
##滨
##滴
##漂
##漏
##漠
##漬
##漸
##潁
##潟
##潤
##潭
##濁
##濃
##濫
##濯
##瀋
##瀬
##灭
##炉
##炊
##点
##烏
##烟
##烧
##烨
##焙
##然
##煎
##煩
##熟
##燁
##燃
##燊
##燒
##燥
##燮
##爭
##爵
##父
##片
##牙
##牲
##犀
##犠
##犯
##狡
##狭
##猛
##猟
##献
##猴
##猶
##獅
##獲
##玩
##环
##现
##珀
##珉
##琥
##琴
##璃
##璇
##環
##璽
##瓊
##甄
##甚
##產
##畔
##畜
##畝
##畠
##略
##異
##畳
##疎
##疫
##疲
##症
##痘
##痢
##痴
##療
##癒
##發
##皆
##皐
##皖
##盈
##盗
##監
##盤
##盾
##眉
##眞
##眺
##眼
##睡
##睿
##瞿
##矛
##短
##矯
##研
##砕
##硝
##硫
##硬
##碁
##碇
##碎
##碕
##碼
##礁
##礎
##礼
##祈
##祉
##祿
##禄
##禍
##禮
##租
##秩
##称
##移
##稚
##稟
##稲
##稷
##稼
##稿
##穆
##穏
##穫
##究
##穿
##窃
##窒
##窟
##窩
##窮
##窯
##站
##童
##笹
##筆
##筈
##筒
##箇
##箏
##範
##籌
##籍
##粉
##粋
##粒
##粗
##粘
##粛
##粧
##糖
##糧
##糾
##納
##紘
##紙
##紛
##素
##紡
##索
##累
##紳
##紹
##紺
##組
##絆
##結
##絞
##絡
##絨
##統
##絵
##続
##綱
##綺
##緊
##緋
##総
##緑
##締
##練
##縁
##縛
##縣
##縫
##繊
##繕
##繚
##繰
##约
##纲
##纵
##线
##练
##继
##绮
##维
##绿
##缮
##缶
##署
##罷
##羊
##羲
##翁
##翟
##翻
##老
##耐
##耗
##聲
##聴
##肇
##肌
##肖
##肚
##肝
##肢
##肩
##肪
##肯
##胆
##胎
##胞
##胴
##脂
##脇
##脫
##脱
##脳
##脹
##腐
##腕
##腰
##腺
##腿
##膚
##膜
##膝
##膨
##膳
##膽
##臭
##臼
##與
##舉
##舍
##舗
##舜
##舟
##舶
##色
##艹
##艾
##节
##芋
##芥
##苏
##苕
##苦
##苹
##茅
##茎
##荆
##荊
##荤
##药
##菌
##菎
##菓
##菻
##萧
##萨
##葡
##葵
##蒟
##蒲
##蒼
##蓄
##蓝
##蔣
##蕎
##蕩
##薄
##薪
##藻
##蘇
##虛
##虜
##蚊
##蚕
##蛋
##蛍
##蜂
##蜍
##蝉
##蟀
##蟋
##蟾
##衆
##街
##衝
##表
##衰
##衷
##被
##裁
##裂
##裝
##裸
##褐
##襟
##覆
##規
##覧
##觀
##视
##觉
##触
##託
##訟
##許
##訴
##診
##詐
##詔
##詰
##該
##詳
##詹
##誇
##誉
##誌
##誕
##誘
##說
##誰
##諭
##諮
##諾
##謁
##謄
##謙
##講
##謝
##謡
##謹
##譚
##譜
##議
##讐
##讓
##计
##议
##讲
##许
##论
##设
##证
##词
##话
##诞
##说
##诸
##诺
##谋
##谒
##谭
##豔
##豚
##豫
##豬
##貓
##貝
##負
##貢
##貧
##販
##貫
##貶
##賄
##賊
##賓
##賜
##賠
##購
##贈
##财
##贵
##贺
##资
##赞
##赦
##赴
##起
##趣
##趾
##距
##跳
##践
##踏
##蹴
##躍
##軌
##軒
##軟
##軸
##較
##載
##輪
##轄
##车
##轩
##转
##轮
##辈
##辞
##辭
##辰
##辱
##農
##辶
##辺
##込
##迅
##迎
##进
##迪
##迫
##迭
##迷
##追
##送
##逃
##逆
##透
##逐
##逓
##途
##逗
##這
##逞
##速
##連
##逮
##逸
##遂
##遅
##違
##遥
##遭
##遮
##遵
##遷
##避
##邪
##邯
##邾
##郊
##郑
##鄉
##鄭
##鄲
##酌
##酔
##酪
##酬
##酱
##酵
##酷
##醉
##醜
##醸
##釈
##釣
##鈍
##鈕
##鉛
##鉢
##銅
##銑
##銘
##鋳
##錘
##錠
##錦
##錬
##錯
##鍋
##鍪
##鎌
##鎗
##鎸
##鑒
##钊
##铁
##铺
##锻
##閃
##閉
##閑
##閒
##閥
##閲
##閻
##闇
##闊
##關
##闻
##阴
##阻
##陀
##附
##际
##降
##陛
##陥
##陪
##陶
##陸
##随
##隐
##隔
##隱
##隸
##隼
##雀
##雇
##雌
##雜
##雞
##離
##雯
##雰
##震
##霍
##霜
##靖
##静
##靚
##革
##鞏
##鞠
##韋
##韩
##韵
##響
##頂
##項
##頑
##頒
##頻
##頼
##額
##顕
##顗
##類
##顯
##顺
##顾
##颱
##飢
##飯
##飽
##餓
##餘
##饌
##駄
##駆
##駐
##駿
##騒
##騰
##驚
##马
##髄
##體
##髪
##髮
##鬥
##鬱
##魅
##魊
##魏
##魚
##鮃
##鮮
##鯉
##鯨
##鯱
##鰐
##鲍
##鲜
##鲟
##鳩
##鳳
##鴫
##鶏
##鷲
##鷹
##鸡
##鸦
##鸿
##鹰
##麟
##麦
##麴
##麼
##黎
##黑
##黙
##點
##黨
##鼓
##鼠
##齢
##같
##검
##겁
##경
##곅
##곆
##곇
##곈
##곉
##곊
##곋
##곌
##곍
##곎
##곏
##곐
##곑
##곒
##곓
##곔
##곕
##곖
##곗
##곘
##곙
##곚
##곛
##곜
##곝
##곞
##곟
##곡
##공
##과
##관
##광
##괴
##굴
##궈
##궉
##궊
##궋
##권
##궍
##궎
##궏
##궐
##궑
##궒
##궓
##궔
##궕
##궖
##궗
##궘
##궙
##궚
##궛
##궜
##궝
##궞
##궟
##궠
##궡
##궢
##궣
##규
##극
##귺
##귻
##귽
##귾
##귿
##긁
##긂
##긃
##긄
##긅
##긆
##긇
##급
##긊
##긋
##긌
##긍
##긎
##긏
##긐
##긑
##긒
##긓
##긔
##긕
##긖
##긗
##긘
##긙
##긚
##긛
##긜
##긝
##긞
##긟
##긠
##긡
##긢
##긣
##긤
##긥
##긦
##긧
##긨
##긩
##긪
##긫
##긬
##긭
##긮
##긯
##긴
##께
##껴
##껵
##껶
##껷
##껸
##껹
##껺
##껻
##껼
##껽
##껾
##껿
##꼀
##꼁
##꼂
##꼃
##꼄
##꼅
##꼆
##꼇
##꼈
##꼉
##꼊
##꼋
##꼌
##꼍
##꼎
##꼏
##꼐
##꼑
##꼒
##꼓
##꼔
##꼕
##꼖
##꼗
##꼘
##꼙
##꼚
##꼛
##꼜
##꼝
##꼞
##꼟
##꼠
##꼡
##꼢
##꼣
##꼤
##꼥
##꼦
##꼧
##꼨
##꼩
##꼪
##꼫
##꾜
##꾝
##꾞
##꾟
##꾠
##꾡
##꾢
##꾣
##꾤
##꾥
##꾦
##꾧
##꾨
##꾩
##꾪
##꾫
##꾬
##꾭
##꾮
##꾯
##꾰
##꾱
##꾲
##꾳
##꾴
##꾵
##꾶
##꾷
##뀨
##뀩
##뀪
##뀫
##뀬
##뀭
##뀮
##뀯
##뀰
##뀱
##뀲
##뀳
##뀴
##뀵
##뀶
##뀷
##뀸
##뀹
##뀺
##뀻
##뀼
##뀽
##뀾
##뀿
##끀
##끁
##끂
##끃
##낮
##널
##녀
##녁
##녕
##놀
##뇨
##뇩
##뇪
##뇫
##뇬
##뇭
##뇮
##뇯
##뇰
##뇱
##뇲
##뇳
##뇴
##뇵
##뇶
##뇷
##뇸
##뇹
##뇺
##뇻
##뇼
##뇽
##뇾
##뇿
##눀
##눁
##눂
##눃
##느
##늬
##닫
##닭
##댜
##댝
##댞
##댟
##댠
##댡
##댢
##댣
##댤
##댥
##댦
##댧
##댨
##댩
##댪
##댫
##댬
##댭
##댮
##댯
##댰
##댱
##댲
##댳
##댴
##댵
##댶
##댷
##덩
##뎌
##뎍
##뎎
##뎏
##뎐
##뎑
##뎒
##뎓
##뎔
##뎕
##뎖
##뎗
##뎘
##뎙
##뎚
##뎛
##뎜
##뎝
##뎞
##뎟
##뎠
##뎡
##뎢
##뎣
##뎤
##뎥
##뎦
##뎧
##뎨
##뎩
##뎪
##뎫
##뎬
##뎭
##뎮
##뎯
##뎰
##뎱
##뎲
##뎳
##뎴
##뎵
##뎶
##뎷
##뎸
##뎹
##뎺
##뎻
##뎼
##뎽
##뎾
##뎿
##돀
##돁
##돂
##돃
##돠
##돡
##돢
##돣
##돤
##돥
##돦
##돧
##돨
##돩
##돪
##돫
##돬
##돭
##돮
##돯
##돰
##돱
##돲
##돳
##돴
##돵
##돶
##돷
##돸
##돹
##돺
##돻
##돽
##돾
##돿
##됀
##됁
##됂
##됃
##됄
##됅
##됆
##됇
##됈
##됉
##됊
##됋
##됌
##됍
##됎
##됏
##됐
##됑
##됒
##됓
##됔
##됕
##됖
##됗
##된
##됴
##됵
##됶
##됷
##됸
##됹
##됺
##됻
##됼
##됽
##됾
##됿
##둀
##둁
##둂
##둃
##둄
##둅
##둆
##둇
##둈
##둉
##둊
##둋
##둌
##둍
##둎
##둏
##두
##뒈
##뒉
##뒊
##뒋
##뒌
##뒍
##뒎
##뒏
##뒐
##뒑
##뒒
##뒓
##뒔
##뒕
##뒖
##뒗
##뒘
##뒙
##뒚
##뒛
##뒜
##뒝
##뒞
##뒟
##뒠
##뒡
##뒢
##뒣
##뒤
##뒥
##뒦
##뒧
##뒨
##뒩
##뒪
##뒫
##뒬
##뒭
##뒮
##뒯
##뒰
##뒱
##뒲
##뒳
##뒴
##뒵
##뒶
##뒷
##뒸
##뒹
##뒺
##뒻
##뒼
##뒽
##뒾
##뒿
##든
##딕
##딖
##딗
##딘
##딙
##딚
##딛
##딜
##딝
##딞
##딟
##딠
##딡
##딢
##딣
##딤
##딥
##딦
##딧
##딨
##딩
##딪
##딫
##딬
##딭
##딮
##딯
##따
##딲
##딳
##딴
##딵
##딶
##딷
##딸
##딹
##딺
##딻
##딼
##딽
##딾
##딿
##땀
##땁
##땂
##땃
##땄
##땅
##땆
##땇
##땈
##땉
##땊
##땋
##때
##떄
##떅
##떆
##떇
##떈
##떉
##떊
##떋
##떌
##떍
##떎
##떏
##떐
##떑
##떒
##떓
##떔
##떕
##떖
##떗
##떘
##떙
##떚
##떛
##떜
##떝
##떞
##떟
##떡
##뗄
##뗘
##뗙
##뗚
##뗛
##뗜
##뗝
##뗞
##뗟
##뗠
##뗡
##뗢
##뗣
##뗤
##뗥
##뗦
##뗧
##뗨
##뗩
##뗪
##뗫
##뗬
##뗭
##뗮
##뗯
##뗰
##뗱
##뗲
##뗳
##또
##똬
##똭
##똮
##똯
##똰
##똱
##똲
##똳
##똴
##똵
##똶
##똷
##똸
##똹
##똺
##똻
##똼
##똽
##똾
##똿
##뙀
##뙁
##뙂
##뙃
##뙄
##뙅
##뙆
##뙇
##뛰
##뜌
##뜍
##뜎
##뜏
##뜐
##뜑
##뜒
##뜓
##뜔
##뜕
##뜖
##뜗
##뜘
##뜙
##뜚
##뜛
##뜜
##뜝
##뜞
##뜟
##뜠
##뜡
##뜢
##뜣
##뜤
##뜥
##뜦
##뜧
##뜨
##램
##랴
##략
##랶
##랷
##랸
##랹
##랺
##랻
##랼
##랽
##랾
##랿
##럀
##럁
##럂
##럃
##럄
##럅
##럆
##럇
##럈
##량
##럊
##럋
##럌
##럍
##럎
##럏
##럐
##럑
##럒
##럓
##럔
##럕
##럖
##럗
##럘
##럙
##럚
##럛
##럜
##럝
##럞
##럟
##럠
##럡
##럢
##럣
##럤
##럥
##럦
##럧
##럨
##럩
##럪
##럫
##러
##렁
##렸
##록
##류
##르
##른
##릉
##릭
##린
##링
##맛
##망
##맹
##먀
##먁
##먂
##먃
##먄
##먅
##먆
##먇
##먈
##먉
##먊
##먋
##먌
##먍
##먎
##먏
##먐
##먑
##먒
##먓
##먔
##먕
##먖
##먗
##먘
##먙
##먚
##먛
##먹
##먼
##멈
##멕
##멖
##멗
##멘
##멙
##멚
##멛
##멜
##멝
##멞
##멟
##멠
##멡
##멢
##멣
##멤
##멥
##멦
##멧
##멨
##멩
##멪
##멫
##멬
##멭
##멮
##멯
##며
##명
##뭔
##므
##믁
##믂
##믃
##믄
##믅
##믆
##믇
##믈
##믉
##믊
##믋
##믌
##믍
##믎
##믏
##믐
##믑
##믒
##믓
##믔
##믕
##믖
##믗
##믘
##믙
##믚
##믛
##믜
##믝
##믞
##믟
##믠
##믡
##믢
##믣
##믤
##믥
##믦
##믧
##믨
##믩
##믪
##믫
##믬
##믭
##믮
##믯
##믰
##믱
##믲
##믳
##믴
##믵
##믶
##믷
##밗
##밙
##밚
##받
##밝
##밞
##밟
##밠
##밡
##밢
##밣
##밦
##밧
##밨
##밪
##밫
##밬
##밭
##밮
##밯
##백
##뱃
##벌
##베
##벳
##변
##복
##볶
##본
##볼
##분
##붜
##붝
##붞
##붟
##붠
##붡
##붢
##붣
##붤
##붥
##붦
##붧
##붨
##붩
##붪
##붫
##붬
##붭
##붮
##붯
##붰
##붱
##붲
##붳
##붴
##붵
##붶
##붷
##뷱
##뷲
##뷳
##뷴
##뷵
##뷶
##뷷
##뷸
##뷹
##뷺
##뷻
##뷼
##뷽
##뷾
##뷿
##븀
##븁
##븂
##븃
##븄
##븅
##븆
##븇
##븈
##븉
##븊
##븋
##빈
##빠
##빡
##빢
##빣
##빥
##빦
##빧
##빩
##빪
##빫
##빬
##빭
##빮
##빯
##빰
##빱
##빲
##빳
##빴
##빵
##빶
##빷
##빸
##빹
##빺
##빻
##빼
##빽
##빾
##빿
##뺀
##뺁
##뺂
##뺃
##뺄
##뺅
##뺆
##뺇
##뺈
##뺉
##뺊
##뺋
##뺌
##뺍
##뺎
##뺏
##뺐
##뺑
##뺒
##뺓
##뺔
##뺕
##뺖
##뺗
##뺘
##뺙
##뺚
##뺛
##뺜
##뺝
##뺞
##뺟
##뺠
##뺡
##뺢
##뺣
##뺤
##뺥
##뺦
##뺧
##뺨
##뺩
##뺪
##뺫
##뺬
##뺭
##뺮
##뺯
##뺰
##뺱
##뺲
##뺳
##뼈
##뼉
##뼊
##뼋
##뼌
##뼍
##뼎
##뼏
##뼐
##뼑
##뼒
##뼓
##뼔
##뼕
##뼖
##뼗
##뼘
##뼙
##뼚
##뼛
##뼜
##뼝
##뼞
##뼟
##뼠
##뼡
##뼢
##뼣
##뼤
##뼥
##뼦
##뼧
##뼨
##뼩
##뼪
##뼫
##뼬
##뼭
##뼮
##뼯
##뼰
##뼱
##뼲
##뼳
##뼴
##뼵
##뼶
##뼷
##뼸
##뼹
##뼺
##뼻
##뼼
##뼽
##뼾
##뼿
##뿌
##삐
##삭
##삮
##삯
##삱
##삲
##삳
##살
##삵
##삶
##삷
##삸
##삹
##삺
##삻
##삽
##삾
##삿
##샀
##샂
##샃
##샄
##샅
##샆
##샇
##새
##색
##샐
##샤
##샥
##샦
##샧
##샨
##샩
##샪
##샫
##샬
##샭
##샮
##샯
##샰
##샱
##샲
##샳
##샴
##샵
##샶
##샷
##샸
##샹
##샺
##샻
##샼
##샽
##샾
##샿
##섞
##섟
##섡
##섢
##섣
##섥
##섦
##섧
##섨
##섩
##섪
##섫
##섮
##섯
##섰
##섲
##섳
##섴
##섵
##섶
##섷
##셕
##셖
##셗
##셙
##셚
##셛
##셜
##셝
##셞
##셟
##셠
##셡
##셢
##셣
##셤
##셥
##셦
##셧
##셨
##셩
##셪
##셫
##셬
##셭
##셮
##셯
##속
##솎
##솏
##솑
##솒
##솓
##솕
##솖
##솗
##솘
##솙
##솚
##솛
##솜
##솝
##솞
##솟
##솠
##솢
##솣
##솤
##솥
##솦
##솧
##쇼
##숨
##슈
##슉
##슊
##슋
##슌
##슍
##슎
##슏
##슐
##슑
##슒
##슓
##슔
##슕
##슖
##슗
##슘
##슙
##슚
##슛
##슜
##슝
##슞
##슟
##슠
##슡
##슢
##슣
##슨
##슴
##습
##승
##실
##썌
##썍
##썎
##썏
##썐
##썑
##썒
##썓
##썔
##썕
##썖
##썗
##썘
##썙
##썚
##썛
##썜
##썝
##썞
##썟
##썠
##썡
##썢
##썣
##썤
##썥
##썦
##썧
##써
##썩
##썪
##썫
##썬
##썭
##썮
##썯
##썰
##썱
##썲
##썳
##썴
##썵
##썶
##썷
##썸
##썹
##썺
##썻
##썼
##썽
##썾
##썿
##쎀
##쎁
##쎂
##쎃
##쎠
##쎡
##쎢
##쎣
##쎤
##쎥
##쎦
##쎧
##쎨
##쎩
##쎪
##쎫
##쎬
##쎭
##쎮
##쎯
##쎰
##쎱
##쎲
##쎳
##쎴
##쎵
##쎶
##쎷
##쎸
##쎹
##쎺
##쎻
##쏘
##쏙
##쏚
##쏛
##쏜
##쏝
##쏞
##쏟
##쏠
##쏡
##쏢
##쏣
##쏤
##쏥
##쏦
##쏧
##쏨
##쏩
##쏪
##쏫
##쏬
##쏭
##쏮
##쏯
##쏰
##쏱
##쏲
##쏳
##쐬
##쐭
##쐮
##쐯
##쐰
##쐱
##쐲
##쐳
##쐴
##쐵
##쐶
##쐷
##쐸
##쐹
##쐺
##쐻
##쐼
##쐽
##쐾
##쐿
##쑀
##쑁
##쑂
##쑃
##쑄
##쑅
##쑆
##쑇
##쑤
##쒜
##쒝
##쒞
##쒟
##쒠
##쒡
##쒢
##쒣
##쒤
##쒥
##쒦
##쒧
##쒨
##쒩
##쒪
##쒫
##쒬
##쒭
##쒮
##쒯
##쒰
##쒱
##쒲
##쒳
##쒴
##쒵
##쒶
##쒷
##쓔
##쓕
##쓖
##쓗
##쓘
##쓙
##쓚
##쓛
##쓜
##쓝
##쓞
##쓟
##쓠
##쓡
##쓢
##쓣
##쓤
##쓥
##쓦
##쓧
##쓨
##쓩
##쓪
##쓫
##쓬
##쓭
##쓮
##쓯
##쓰
##씩
##씪
##씫
##씬
##씭
##씮
##씯
##씰
##씱
##씲
##씳
##씴
##씵
##씶
##씷
##씸
##씹
##씺
##씻
##씼
##씽
##씾
##씿
##앀
##앁
##앂
##앃
##악
##앤
##앾
##앿
##얀
##얁
##얂
##얃
##얄
##얅
##얆
##얇
##얈
##얉
##얊
##얋
##얌
##얍
##얎
##얏
##얐
##얒
##얓
##얔
##얕
##얖
##얗
##언
##얼
##없
##엘
##엣
##엮
##엯
##엱
##엲
##엳
##열
##엵
##엶
##엷
##엸
##엹
##엺
##엻
##염
##엽
##엾
##엿
##였
##옂
##옃
##옄
##옅
##옆
##옇
##욱
##운
##움
##웅
##웍
##웎
##웏
##웑
##웒
##웓
##웕
##웖
##웗
##웘
##웙
##웚
##웛
##웜
##웝
##웞
##웟
##웠
##웡
##웢
##웣
##웤
##웥
##웦
##웧
##육
##윢
##윣
##윥
##윦
##윧
##율
##윩
##윪
##윫
##윬
##윭
##윮
##윯
##윰
##윱
##윲
##윳
##윴
##융
##윶
##윷
##윸
##윹
##윺
##윻
##으
##은
##임
##작
##잭
##쟁
##쟤
##쟥
##쟦
##쟧
##쟨
##쟩
##쟪
##쟫
##쟬
##쟭
##쟮
##쟯
##쟰
##쟱
##쟲
##쟳
##쟴
##쟵
##쟶
##쟷
##쟸
##쟹
##쟺
##쟻
##쟼
##쟽
##쟾
##쟿
##젞
##젟
##젠
##젡
##젢
##젣
##젤
##젥
##젦
##젧
##젨
##젩
##젪
##젫
##젬
##젭
##젮
##젯
##젰
##젱
##젲
##젳
##젴
##젵
##젶
##젷
##져
##젹
##젺
##젻
##젼
##젽
##젾
##젿
##졀
##졁
##졂
##졃
##졄
##졅
##졆
##졇
##졈
##졉
##졊
##졋
##졌
##졍
##졎
##졏
##졐
##졑
##졒
##졓
##좍
##좎
##좏
##좐
##좑
##좒
##좓
##좔
##좕
##좖
##좗
##좘
##좙
##좚
##좛
##좜
##좝
##좞
##좟
##좠
##좡
##좢
##좣
##좤
##좥
##좦
##좧
##죽
##즈
##집
##징
##짜
##짝
##짞
##짟
##짠
##짡
##짢
##짣
##짤
##짥
##짦
##짧
##짨
##짩
##짪
##짫
##짬
##짭
##짮
##짯
##짰
##짲
##짳
##짴
##짵
##짶
##짷
##쩔
##쪄
##쪅
##쪆
##쪇
##쪈
##쪉
##쪊
##쪋
##쪌
##쪍
##쪎
##쪏
##쪐
##쪑
##쪒
##쪓
##쪔
##쪕
##쪖
##쪗
##쪘
##쪙
##쪚
##쪛
##쪜
##쪝
##쪞
##쪟
##쬐
##쬑
##쬒
##쬓
##쬔
##쬕
##쬖
##쬗
##쬘
##쬙
##쬚
##쬛
##쬜
##쬝
##쬞
##쬟
##쬠
##쬡
##쬢
##쬣
##쬤
##쬥
##쬦
##쬧
##쬨
##쬩
##쬪
##쬫
##쯔
##쯕
##쯖
##쯗
##쯘
##쯙
##쯚
##쯛
##쯜
##쯝
##쯞
##쯟
##쯠
##쯡
##쯢
##쯣
##쯤
##쯥
##쯦
##쯧
##쯨
##쯩
##쯪
##쯫
##쯬
##쯭
##쯮
##쯯
##착
##찪
##찫
##찭
##찮
##찯
##찰
##찱
##찲
##찳
##찴
##찵
##찶
##찷
##참
##찹
##찺
##찻
##찼
##찿
##챀
##챁
##챂
##챃
##첚
##첛
##첝
##첞
##첟
##첡
##첢
##첣
##첤
##첥
##첦
##첧
##첨
##첩
##첪
##첬
##첮
##첯
##첰
##첱
##첲
##첳
##체
##쳐
##쳬
##쳭
##쳮
##쳯
##쳰
##쳱
##쳲
##쳳
##쳴
##쳵
##쳶
##쳷
##쳸
##쳹
##쳺
##쳻
##쳼
##쳽
##쳾
##쳿
##촀
##촁
##촂
##촃
##촄
##촅
##촆
##촇
##촉
##촊
##촋
##촌
##촍
##촎
##촏
##촐
##촑
##촒
##촓
##촔
##촕
##촖
##촗
##촘
##촙
##촚
##촛
##촜
##총
##촞
##촟
##촠
##촡
##촢
##촣
##추
##축
##출
##춱
##춲
##춳
##춴
##춵
##춶
##춷
##춸
##춹
##춺
##춻
##춼
##춽
##춾
##춿
##췀
##췁
##췂
##췃
##췄
##췅
##췆
##췇
##췈
##췉
##췊
##췋
##츄
##츠
##측
##츢
##츣
##츤
##츥
##츦
##츧
##츨
##츩
##츪
##츫
##츬
##츭
##츮
##츯
##츰
##츱
##츲
##츳
##츴
##층
##츶
##츷
##츸
##츹
##츺
##츻
##칙
##칚
##칛
##친
##칝
##칞
##칟
##칡
##칢
##칣
##칤
##칥
##칦
##칧
##침
##칩
##칪
##칫
##칬
##칭
##칮
##칯
##칰
##칱
##칲
##칳
##캬
##캭
##캮
##캯
##캰
##캱
##캲
##캳
##캴
##캵
##캶
##캷
##캸
##캹
##캺
##캻
##캼
##캽
##캾
##캿
##컀
##컁
##컂
##컃
##컄
##컅
##컆
##컇
##컈
##컉
##컊
##컋
##컌
##컍
##컎
##컏
##컐
##컑
##컒
##컓
##컔
##컕
##컖
##컗
##컘
##컙
##컚
##컛
##컜
##컝
##컞
##컟
##컠
##컡
##컢
##컣
##커
##컥
##컦
##컧
##컨
##컩
##컪
##컫
##컭
##컮
##컯
##컰
##컱
##컲
##컳
##컴
##컵
##컶
##컷
##컸
##컹
##컺
##컻
##컼
##컽
##컾
##컿
##켄
##켜
##켝
##켞
##켟
##켠
##켡
##켢
##켣
##켤
##켥
##켦
##켧
##켨
##켩
##켪
##켫
##켬
##켭
##켮
##켯
##켰
##켱
##켲
##켳
##켴
##켵
##켶
##켷
##켸
##켹
##켺
##켻
##켼
##켽
##켾
##켿
##콀
##콁
##콂
##콃
##콄
##콅
##콆
##콇
##콈
##콉
##콊
##콋
##콌
##콍
##콎
##콏
##콐
##콑
##콒
##콓
##콩
##콰
##콱
##콲
##콳
##콴
##콵
##콶
##콷
##콸
##콹
##콺
##콻
##콼
##콽
##콾
##콿
##쾀
##쾁
##쾂
##쾃
##쾄
##쾅
##쾆
##쾇
##쾈
##쾉
##쾊
##쾋
##쿄
##쿅
##쿆
##쿇
##쿈
##쿉
##쿊
##쿋
##쿌
##쿍
##쿎
##쿏
##쿐
##쿑
##쿒
##쿓
##쿔
##쿕
##쿖
##쿗
##쿘
##쿙
##쿚
##쿛
##쿜
##쿝
##쿞
##쿟
##쿨
##퀘
##퀙
##퀚
##퀛
##퀜
##퀝
##퀞
##퀟
##퀠
##퀡
##퀢
##퀣
##퀤
##퀥
##퀦
##퀧
##퀨
##퀩
##퀪
##퀫
##퀬
##퀭
##퀮
##퀯
##퀰
##퀱
##퀲
##퀳
##퀴
##퀵
##퀶
##퀷
##퀸
##퀹
##퀺
##퀻
##퀼
##퀽
##퀾
##퀿
##큀
##큁
##큂
##큃
##큄
##큅
##큆
##큇
##큈
##큉
##큊
##큋
##큌
##큍
##큎
##큏
##큐
##큑
##큒
##큓
##큔
##큕
##큖
##큗
##큘
##큙
##큚
##큛
##큜
##큝
##큞
##큟
##큠
##큡
##큢
##큣
##큤
##큥
##큦
##큧
##큨
##큩
##큪
##큫
##킈
##킉
##킊
##킋
##킌
##킍
##킎
##킏
##킐
##킑
##킒
##킓
##킔
##킕
##킖
##킗
##킘
##킙
##킚
##킛
##킜
##킝
##킞
##킟
##킠
##킡
##킢
##킣
##킥
##킦
##킧
##킨
##킩
##킪
##킫
##킬
##킭
##킮
##킯
##킰
##킱
##킲
##킳
##킴
##킵
##킶
##킷
##킸
##킹
##킺
##킻
##킼
##킽
##킾
##킿
##탄
##탈
##택
##턱
##턲
##턳
##턴
##턵
##턶
##턷
##털
##턹
##턺
##턻
##턼
##턽
##턾
##턿
##텀
##텁
##텂
##텃
##텄
##텅
##텆
##텇
##텈
##텉
##텊
##텋
##테
##텍
##텎
##텏
##텐
##텑
##텒
##텓
##텕
##텖
##텗
##텘
##텙
##텚
##텛
##템
##텝
##텞
##텟
##텠
##텡
##텢
##텣
##텤
##텥
##텦
##텧
##텨
##텩
##텪
##텫
##텬
##텭
##텮
##텯
##텰
##텱
##텲
##텳
##텴
##텵
##텶
##텷
##텸
##텹
##텺
##텻
##텼
##텽
##텾
##텿
##톀
##톁
##톂
##톃
##톡
##톢
##톣
##톤
##톥
##톦
##톧
##톨
##톩
##톪
##톫
##톬
##톭
##톮
##톯
##톰
##톲
##톳
##톴
##톶
##톷
##톸
##톹
##톺
##톻
##퇘
##퇙
##퇚
##퇛
##퇜
##퇝
##퇞
##퇟
##퇠
##퇡
##퇢
##퇣
##퇤
##퇥
##퇦
##퇧
##퇨
##퇩
##퇪
##퇫
##퇬
##퇭
##퇮
##퇯
##퇰
##퇱
##퇲
##퇳
##특
##틔
##틕
##틖
##틗
##틘
##틙
##틚
##틛
##틜
##틝
##틞
##틟
##틠
##틡
##틢
##틣
##틤
##틥
##틦
##틧
##틨
##틩
##틪
##틫
##틬
##틭
##틮
##틯
##틱
##팍
##팎
##팏
##팑
##팒
##팓
##팔
##팕
##팖
##팗
##팘
##팙
##팚
##팛
##팜
##팞
##팟
##팡
##팢
##팣
##팤
##팥
##팦
##팧
##퍄
##퍅
##퍆
##퍇
##퍈
##퍉
##퍊
##퍋
##퍌
##퍍
##퍎
##퍏
##퍐
##퍑
##퍒
##퍓
##퍔
##퍕
##퍖
##퍗
##퍘
##퍙
##퍚
##퍛
##퍜
##퍝
##퍞
##퍟
##퍠
##퍡
##퍢
##퍣
##퍤
##퍥
##퍦
##퍧
##퍨
##퍩
##퍪
##퍫
##퍬
##퍭
##퍮
##퍯
##퍰
##퍱
##퍲
##퍳
##퍴
##퍵
##퍶
##퍷
##퍸
##퍹
##퍺
##퍻
##폐
##폑
##폒
##폓
##폔
##폕
##폖
##폗
##폘
##폙
##폚
##폛
##폜
##폝
##폞
##폟
##폠
##폡
##폢
##폣
##폤
##폥
##폦
##폧
##폨
##폩
##폪
##폫
##포
##폰
##푸
##풔
##풕
##풖
##풗
##풘
##풙
##풚
##풛
##풜
##풝
##풞
##풟
##풠
##풡
##풢
##풣
##풤
##풥
##풦
##풧
##풨
##풩
##풪
##풫
##풬
##풭
##풮
##풯
##픠
##픡
##픢
##픣
##픤
##픥
##픦
##픧
##픨
##픩
##픪
##픫
##픬
##픭
##픮
##픯
##픰
##픱
##픲
##픳
##픴
##픵
##픶
##픷
##픸
##픹
##픺
##픻
##픽
##함
##항
##핸
##했
##햐
##햑
##햒
##햓
##햔
##햕
##햖
##햗
##햘
##햙
##햚
##햛
##햜
##햝
##햞
##햟
##햠
##햡
##햢
##햣
##햤
##햦
##햧
##햨
##햩
##햪
##햫
##혀
##확
##홖
##홗
##홙
##홚
##홛
##홝
##홞
##홟
##홠
##홡
##홢
##홣
##홤
##홥
##홦
##홧
##홨
##홪
##홫
##홬
##홭
##홮
##홯
##회
##획
##횎
##횏
##횐
##횑
##횒
##횓
##횔
##횕
##횖
##횗
##횘
##횙
##횚
##횛
##횜
##횝
##횞
##횟
##횠
##횡
##횢
##횣
##횤
##횥
##횦
##횧
##후
##훠
##훡
##훢
##훣
##훤
##훥
##훦
##훧
##훨
##훩
##훪
##훫
##훬
##훭
##훮
##훯
##훰
##훱
##훲
##훳
##훴
##훵
##훶
##훷
##훸
##훹
##훺
##훻
##훼
##훽
##훾
##훿
##휀
##휁
##휂
##휃
##휄
##휅
##휆
##휇
##휈
##휉
##휊
##휋
##휌
##휍
##휎
##휏
##휐
##휑
##휒
##휓
##휔
##휕
##휖
##휗
##휵
##휶
##휷
##휸
##휹
##휺
##휻
##휼
##휽
##휾
##휿
##흀
##흁
##흂
##흃
##흄
##흅
##흆
##흇
##흈
##흉
##흊
##흋
##흌
##흍
##흎
##흏
##흭
##흮
##흯
##흰
##흱
##흲
##흳
##흴
##흵
##흶
##흷
##흸
##흹
##흺
##흻
##흼
##흽
##흾
##흿
##힀
##힁
##힂
##힃
##힄
##힅
##힆
##힇
##힙
##﨔
##𐎾
##𐬞
##𐬭
